unsigned char g_model[] = {
  0x1c, 0x00, 0x00, 0x00, 0x54, 0x46, 0x4c, 0x33, 0x14, 0x00, 0x20, 0x00,
  0x1c, 0x00, 0x18, 0x00, 0x14, 0x00, 0x10, 0x00, 0x0c, 0x00, 0x00, 0x00,
  0x08, 0x00, 0x04, 0x00, 0x14, 0x00, 0x00, 0x00, 0x1c, 0x00, 0x00, 0x00,
  0x1c, 0x00, 0x00, 0x00, 0x74, 0x00, 0x00, 0x00, 0x28, 0x33, 0x00, 0x00,
  0x38, 0x33, 0x00, 0x00, 0xcc, 0x39, 0x00, 0x00, 0x03, 0x00, 0x00, 0x00,
  0x00, 0x00, 0x00, 0x00, 0x02, 0x00, 0x00, 0x00, 0x34, 0x00, 0x00, 0x00,
  0x04, 0x00, 0x00, 0x00, 0xdc, 0xff, 0xff, 0xff, 0x0e, 0x00, 0x00, 0x00,
  0x04, 0x00, 0x00, 0x00, 0x13, 0x00, 0x00, 0x00, 0x43, 0x4f, 0x4e, 0x56,
  0x45, 0x52, 0x53, 0x49, 0x4f, 0x4e, 0x5f, 0x4d, 0x45, 0x54, 0x41, 0x44,
  0x41, 0x54, 0x41, 0x00, 0x08, 0x00, 0x0c, 0x00, 0x08, 0x00, 0x04, 0x00,
  0x08, 0x00, 0x00, 0x00, 0x0d, 0x00, 0x00, 0x00, 0x04, 0x00, 0x00, 0x00,
  0x13, 0x00, 0x00, 0x00, 0x6d, 0x69, 0x6e, 0x5f, 0x72, 0x75, 0x6e, 0x74,
  0x69, 0x6d, 0x65, 0x5f, 0x76, 0x65, 0x72, 0x73, 0x69, 0x6f, 0x6e, 0x00,
  0x0f, 0x00, 0x00, 0x00, 0xb0, 0x32, 0x00, 0x00, 0xa8, 0x32, 0x00, 0x00,
  0x88, 0x32, 0x00, 0x00, 0x70, 0x32, 0x00, 0x00, 0x54, 0x32, 0x00, 0x00,
  0x64, 0x03, 0x00, 0x00, 0x34, 0x03, 0x00, 0x00, 0xa4, 0x00, 0x00, 0x00,
  0x9c, 0x00, 0x00, 0x00, 0x94, 0x00, 0x00, 0x00, 0x8c, 0x00, 0x00, 0x00,
  0x84, 0x00, 0x00, 0x00, 0x7c, 0x00, 0x00, 0x00, 0x5c, 0x00, 0x00, 0x00,
  0x04, 0x00, 0x00, 0x00, 0x06, 0xcd, 0xff, 0xff, 0x04, 0x00, 0x00, 0x00,
  0x48, 0x00, 0x00, 0x00, 0x04, 0x00, 0x00, 0x00, 0xdc, 0xff, 0xff, 0xff,
  0x10, 0x00, 0x00, 0x00, 0x24, 0x00, 0x00, 0x00, 0x00, 0x00, 0x06, 0x00,
  0x08, 0x00, 0x04, 0x00, 0x06, 0x00, 0x00, 0x00, 0x04, 0x00, 0x00, 0x00,
  0x01, 0x00, 0x00, 0x00, 0xeb, 0x03, 0x00, 0x00, 0x08, 0x00, 0x0c, 0x00,
  0x08, 0x00, 0x04, 0x00, 0x08, 0x00, 0x00, 0x00, 0x01, 0x00, 0x00, 0x00,
  0x04, 0x00, 0x00, 0x00, 0x06, 0x00, 0x00, 0x00, 0x32, 0x2e, 0x31, 0x31,
  0x2e, 0x30, 0x00, 0x00, 0x5a, 0xcd, 0xff, 0xff, 0x04, 0x00, 0x00, 0x00,
  0x10, 0x00, 0x00, 0x00, 0x31, 0x2e, 0x31, 0x34, 0x2e, 0x30, 0x00, 0x00,
  0x00, 0x00, 0x00, 0x00, 0x00, 0x00, 0x00, 0x00, 0xf0, 0xc7, 0xff, 0xff,
  0xf4, 0xc7, 0xff, 0xff, 0xf8, 0xc7, 0xff, 0xff, 0xfc, 0xc7, 0xff, 0xff,
  0x00, 0xc8, 0xff, 0xff, 0x8a, 0xcd, 0xff, 0xff, 0x04, 0x00, 0x00, 0x00,
  0x80, 0x02, 0x00, 0x00, 0x47, 0x15, 0x67, 0x08, 0x35, 0x02, 0x1a, 0xef,
  0x32, 0xf5, 0x45, 0xdd, 0x41, 0xda, 0x37, 0xdd, 0x16, 0xf8, 0x2b, 0xd6,
  0x2c, 0xe6, 0x2f, 0xd6, 0xfd, 0xe7, 0x18, 0xe6, 0x2f, 0xdd, 0x49, 0xe1,
  0xc3, 0xe2, 0xe9, 0xea, 0x21, 0xf0, 0x49, 0x07, 0xa0, 0xc7, 0xdc, 0xe7,
  0x28, 0xf3, 0x5d, 0x0b, 0x81, 0xc3, 0xda, 0xd4, 0x24, 0x08, 0x5a, 0x23,
  0x9b, 0xd8, 0xc7, 0xe8, 0x15, 0x10, 0x45, 0x33, 0x98, 0xd8, 0xca, 0xd3,
  0x19, 0xe5, 0x40, 0x18, 0x88, 0xd3, 0xca, 0xba, 0xf3, 0xd5, 0x19, 0xf3,
  0xf4, 0x16, 0x29, 0x04, 0x1b, 0x00, 0x04, 0xf6, 0x05, 0x09, 0x47, 0xfe,
  0x2e, 0xfa, 0x08, 0xe7, 0x0c, 0xeb, 0x5a, 0xe3, 0x37, 0xe8, 0x0b, 0xcd,
  0x1c, 0xf0, 0x63, 0xe7, 0x47, 0xda, 0x16, 0xca, 0x21, 0xe3, 0x7f, 0xe5,
  0x4a, 0xd9, 0x19, 0xc0, 0x22, 0xe8, 0x76, 0xf0, 0x44, 0xe0, 0x09, 0xbf,
  0x20, 0xe8, 0x6e, 0xea, 0x31, 0xe2, 0x0e, 0xbb, 0x1f, 0xdf, 0x5a, 0xec,
  0x18, 0xd7, 0xde, 0xca, 0x1a, 0xe0, 0x57, 0xe9, 0x0e, 0xde, 0xe1, 0xc4,
  0x18, 0xe7, 0x3f, 0xea, 0x06, 0xe3, 0xc7, 0xcd, 0x13, 0x07, 0x7c, 0xfd,
  0x22, 0x05, 0x55, 0xc2, 0x2d, 0xf4, 0x5a, 0xd3, 0x1b, 0xf7, 0x5e, 0xd2,
  0x36, 0xe5, 0x3a, 0xc3, 0x0d, 0xee, 0x6b, 0xd5, 0x37, 0xe1, 0x29, 0xcd,
  0xf4, 0xe5, 0x7f, 0xc2, 0x15, 0xdb, 0x00, 0xb7, 0xf2, 0xe6, 0x6f, 0xe4,
  0xee, 0xce, 0xee, 0xcf, 0xeb, 0x00, 0x7e, 0xfb, 0xd3, 0xd6, 0xdf, 0xd2,
  0xe2, 0x13, 0x72, 0x1f, 0xca, 0xdb, 0xd0, 0xfe, 0xdd, 0x12, 0x6a, 0x2c,
  0xb7, 0xe7, 0xea, 0xf3, 0xc2, 0x12, 0x2f, 0x19, 0xba, 0xe7, 0xe5, 0xe9,
  0xb8, 0x06, 0xee, 0x11, 0xc6, 0xf7, 0xe9, 0xe7, 0xc5, 0x16, 0x18, 0x6a,
  0xaa, 0x04, 0xc7, 0xee, 0xb3, 0x20, 0x0c, 0x71, 0x9e, 0x02, 0xb7, 0xec,
  0xb6, 0x1d, 0x09, 0x68, 0x93, 0xf5, 0xb0, 0xe5, 0xac, 0x25, 0x10, 0x72,
  0x93, 0xec, 0xb0, 0xf2, 0xa6, 0x2c, 0x09, 0x71, 0x8a, 0xe3, 0xbf, 0xd9,
  0xb8, 0x1e, 0x09, 0x6a, 0x81, 0xcd, 0xc5, 0xde, 0xc0, 0x16, 0xff, 0x69,
  0x92, 0xca, 0xd2, 0xc3, 0xd5, 0x18, 0x05, 0x53, 0xa0, 0xd1, 0xba, 0xb9,
  0xbf, 0xfc, 0x13, 0x3a, 0x83, 0xd5, 0xaa, 0xb2, 0xc4, 0xf5, 0xf3, 0x46,
  0x44, 0x5f, 0x16, 0xef, 0xee, 0xcb, 0xc3, 0xd4, 0x14, 0x3f, 0xf9, 0xe3,
  0xf6, 0xc4, 0xa2, 0xbe, 0x00, 0x40, 0xf9, 0xdd, 0xd4, 0xd2, 0xdd, 0xcd,
  0xd6, 0x44, 0xf2, 0xf0, 0x02, 0xda, 0xf3, 0xea, 0xf0, 0x4f, 0xe4, 0xf7,
  0x20, 0xfc, 0xdb, 0xd1, 0x0b, 0x7f, 0x03, 0x0d, 0x01, 0x03, 0xe5, 0x01,
  0xdc, 0x64, 0x01, 0xef, 0xf9, 0x00, 0xc1, 0xfe, 0xf7, 0x71, 0xea, 0xef,
  0xfa, 0x00, 0xb4, 0xe4, 0xc0, 0x4a, 0xf8, 0x03, 0xe3, 0x04, 0xc5, 0xe9,
  0xc4, 0x01, 0xd0, 0xb7, 0xcf, 0xc6, 0xee, 0xbc, 0xc6, 0xde, 0xd2, 0xf7,
  0xd7, 0xc7, 0xc0, 0xd5, 0xdc, 0xfc, 0xee, 0xfb, 0xe7, 0xd0, 0xc9, 0xd6,
  0xf8, 0x05, 0xfd, 0x3e, 0x06, 0xe3, 0xdb, 0xf6, 0x04, 0x20, 0x06, 0x5a,
  0xf1, 0x06, 0xc4, 0x0e, 0xf9, 0x36, 0x1c, 0x7f, 0x07, 0x26, 0xdc, 0x25,
  0xf2, 0x23, 0x02, 0x45, 0xf5, 0x24, 0xdb, 0x2f, 0xe8, 0xed, 0xe3, 0x18,
  0xe9, 0x02, 0xd5, 0x1e, 0xe2, 0xe7, 0xff, 0x0f, 0xe9, 0xfb, 0xe2, 0x00,
  0xee, 0xea, 0xee, 0x0d, 0x00, 0xf5, 0xec, 0xf6, 0xe6, 0xc7, 0xea, 0xeb,
  0x00, 0xe1, 0xe3, 0xd6, 0x20, 0x25, 0x72, 0x10, 0x26, 0x69, 0x68, 0xee,
  0xf4, 0xe1, 0x17, 0x19, 0xfe, 0x2a, 0x12, 0xb3, 0xac, 0xe3, 0x04, 0xf5,
  0xec, 0x81, 0xa3, 0xa0, 0xbd, 0xf9, 0xd6, 0xb7, 0xbd, 0xb3, 0xd0, 0xaa,
  0xf3, 0xf1, 0x07, 0xf0, 0xd9, 0x14, 0xec, 0x25, 0xd8, 0x01, 0xf1, 0xf8,
  0xec, 0x13, 0x19, 0x3a, 0xd5, 0x47, 0xd3, 0x21, 0x19, 0x47, 0x10, 0x50,
  0xb4, 0xea, 0x2f, 0xc8, 0xf2, 0x2c, 0x20, 0x5b, 0xea, 0xcf, 0xdf, 0xc1,
  0xf9, 0x1c, 0x11, 0x21, 0xfb, 0x10, 0x17, 0xd8, 0xa5, 0xf1, 0x09, 0xc7,
  0x09, 0x53, 0x5e, 0x24, 0x36, 0x05, 0x09, 0xd8, 0x06, 0x2f, 0x44, 0x17,
  0x1c, 0xff, 0x0c, 0xe1, 0xf9, 0x14, 0x18, 0xf8, 0x0e, 0xeb, 0xf7, 0xec,
  0x10, 0x0c, 0x11, 0xf0, 0xe8, 0xf2, 0xec, 0x0b, 0x25, 0x0d, 0x0a, 0xe3,
  0xc8, 0xeb, 0xcb, 0x0f, 0x46, 0x11, 0x12, 0xd0, 0xc6, 0xcc, 0xb3, 0x06,
  0x53, 0x1c, 0x16, 0xd8, 0xbb, 0xc8, 0xb4, 0xf1, 0x58, 0x27, 0x14, 0xe1,
  0xe4, 0xe0, 0xb7, 0xee, 0x47, 0x10, 0x10, 0xe2, 0xdc, 0xd3, 0xc7, 0xb4,
  0xfa, 0x04, 0xe7, 0xcd, 0xec, 0xcb, 0xc6, 0x81, 0x16, 0xd0, 0xff, 0xff,
  0x04, 0x00, 0x00, 0x00, 0x20, 0x00, 0x00, 0x00, 0x99, 0xff, 0xff, 0xff,
  0xff, 0xfd, 0xff, 0xff, 0x26, 0xff, 0xff, 0xff, 0x3d, 0x00, 0x00, 0x00,
  0x14, 0x00, 0x00, 0x00, 0x5f, 0x00, 0x00, 0x00, 0xbc, 0x00, 0x00, 0x00,
  0xe9, 0xfe, 0xff, 0xff, 0x42, 0xd0, 0xff, 0xff, 0x04, 0x00, 0x00, 0x00,
  0xe0, 0x2e, 0x00, 0x00, 0x01, 0x08, 0x00, 0xe0, 0x02, 0x2c, 0xef, 0x09,
  0xec, 0x19, 0x1f, 0x1b, 0xf9, 0x2b, 0x08, 0x1a, 0xff, 0x22, 0xfe, 0x1b,
  0x06, 0xef, 0x0e, 0x0b, 0xe2, 0x23, 0x0d, 0x0a, 0x08, 0x1c, 0xf3, 0x0a,
  0xff, 0xef, 0x10, 0x0f, 0x13, 0xe9, 0xef, 0xf2, 0xf7, 0xf5, 0x0f, 0x0f,
  0x0a, 0xf0, 0x13, 0xd8, 0x09, 0x0e, 0x1c, 0x01, 0xf4, 0xe5, 0xef, 0x0f,
  0x0d, 0xef, 0x09, 0x04, 0xfa, 0x2e, 0xf5, 0x04, 0x1d, 0x15, 0xf4, 0x10,
  0xf7, 0x12, 0x16, 0xe0, 0x00, 0x14, 0xf2, 0x0f, 0x18, 0x06, 0x0b, 0x07,
  0x06, 0xfc, 0x03, 0xe4, 0x04, 0xef, 0xf7, 0xe8, 0xfb, 0xda, 0xee, 0xfe,
  0x13, 0x0a, 0x07, 0x0d, 0x0c, 0x0c, 0x0c, 0x23, 0xf9, 0x15, 0x20, 0xec,
  0x20, 0x09, 0xec, 0x23, 0x19, 0x2d, 0xf0, 0xf7, 0x19, 0x0e, 0x21, 0x13,
  0xed, 0x04, 0xe0, 0xd4, 0x06, 0x0d, 0x0c, 0xe8, 0x1d, 0xfc, 0x29, 0xfd,
  0xd8, 0x11, 0x15, 0x1a, 0x10, 0x0e, 0xfc, 0x19, 0x13, 0x0e, 0x08, 0xeb,
  0x0d, 0x07, 0x1b, 0xd7, 0x0a, 0x12, 0xfc, 0x08, 0x0c, 0xd7, 0x0e, 0xfa,
  0xfd, 0xf4, 0xfc, 0xee, 0x12, 0x38, 0xfe, 0x07, 0xf2, 0xfa, 0xf7, 0xf8,
  0x18, 0x09, 0x1b, 0x23, 0xe7, 0x01, 0xfa, 0x0e, 0xf3, 0x19, 0x28, 0x05,
  0x11, 0x30, 0x14, 0x11, 0x26, 0xe2, 0x18, 0xf3, 0x04, 0xf6, 0x1a, 0x03,
  0xf8, 0xe7, 0xed, 0xff, 0x0c, 0xf2, 0x23, 0xf2, 0x00, 0xf4, 0x05, 0x08,
  0xe4, 0xe8, 0x0d, 0xef, 0x08, 0xf8, 0xfc, 0x27, 0x1f, 0x0b, 0xfb, 0x02,
  0x08, 0xe7, 0x0d, 0xfe, 0xf5, 0x20, 0x0f, 0x1f, 0x09, 0x0c, 0xf7, 0x06,
  0xf9, 0x10, 0x10, 0x16, 0xfc, 0xf4, 0x16, 0x10, 0xf7, 0xf0, 0x01, 0xfe,
  0xe4, 0xf7, 0xf7, 0x05, 0xff, 0x07, 0xe8, 0xe3, 0x0a, 0xed, 0x11, 0x0a,
  0xee, 0x18, 0xf9, 0x06, 0x10, 0x0b, 0xdd, 0x07, 0x0f, 0x11, 0xe4, 0x10,
  0xf1, 0xff, 0xf8, 0xe8, 0x08, 0x27, 0x20, 0x09, 0xee, 0x11, 0x08, 0x06,
  0xfd, 0xfa, 0xf9, 0xe7, 0xf5, 0xfc, 0xf5, 0x15, 0xfb, 0x0a, 0xed, 0x17,
  0x0f, 0x12, 0xdb, 0x00, 0x16, 0x16, 0xe7, 0x0f, 0xed, 0xec, 0x15, 0x01,
  0x07, 0x20, 0xf1, 0xdb, 0x15, 0x1a, 0xef, 0xf3, 0xf3, 0x13, 0x04, 0x25,
  0xe5, 0xeb, 0xf7, 0xf3, 0x06, 0x0f, 0x07, 0x2d, 0x0e, 0x0f, 0xdb, 0x2a,
  0xf8, 0x09, 0xff, 0xeb, 0x1a, 0xd8, 0x01, 0x14, 0x20, 0x31, 0x2a, 0xe1,
  0x20, 0xc9, 0xdd, 0x0f, 0x11, 0xf3, 0x26, 0xf9, 0x1c, 0xf6, 0xf0, 0x07,
  0x0f, 0xeb, 0x18, 0x0e, 0x1d, 0xd9, 0x0c, 0xe4, 0xfe, 0xfa, 0x12, 0x00,
  0xe4, 0xda, 0xd8, 0xe0, 0x08, 0x04, 0x19, 0x01, 0x23, 0xfb, 0x0a, 0xe5,
  0x05, 0xf4, 0x13, 0x19, 0xfc, 0xd6, 0x12, 0x0c, 0x01, 0x04, 0x16, 0x00,
  0xeb, 0xee, 0x20, 0xf9, 0xd6, 0x03, 0xf8, 0x21, 0xed, 0xef, 0x1c, 0xf6,
  0xe5, 0x02, 0x13, 0xfd, 0x11, 0xef, 0x1d, 0x1b, 0x1c, 0x03, 0x1e, 0x00,
  0xec, 0xed, 0xe8, 0xf2, 0xfb, 0xf7, 0x17, 0x12, 0xfb, 0xd9, 0xf7, 0x18,
  0x15, 0x1b, 0x46, 0xe3, 0x03, 0x11, 0xe1, 0xeb, 0x05, 0x0b, 0x13, 0x18,
  0x27, 0x10, 0x0a, 0x1c, 0x00, 0xfb, 0x38, 0x0f, 0x0d, 0xd6, 0xe5, 0x02,
  0x18, 0x14, 0xfd, 0xfe, 0xef, 0xff, 0xf0, 0xf9, 0x2b, 0x07, 0x02, 0x11,
  0xf2, 0xe9, 0x24, 0xf6, 0x15, 0x19, 0x28, 0x05, 0x07, 0xfd, 0x2a, 0xe4,
  0xfb, 0xf0, 0x21, 0xf4, 0xe1, 0x0d, 0x0a, 0x0c, 0x11, 0x07, 0xf8, 0xf6,
  0x11, 0xbc, 0x00, 0xfb, 0x07, 0xe9, 0xe4, 0x11, 0x2c, 0x0d, 0xf3, 0xf7,
  0xee, 0x1c, 0x03, 0x26, 0x04, 0xf0, 0xf8, 0x2b, 0x17, 0xee, 0xfd, 0x20,
  0xf1, 0xe1, 0xea, 0xf5, 0x12, 0xd9, 0xee, 0x07, 0xef, 0x14, 0x00, 0xdf,
  0xf3, 0xf4, 0xe7, 0x17, 0xdd, 0x01, 0xf6, 0xd2, 0xec, 0xd8, 0xef, 0x23,
  0xf9, 0xe9, 0x0c, 0xd4, 0x06, 0x05, 0xea, 0xe1, 0xf0, 0xeb, 0x04, 0xe1,
  0xca, 0xe4, 0xd2, 0xfb, 0xf5, 0xf9, 0xf2, 0xf1, 0xe4, 0xe5, 0xf5, 0xf4,
  0x02, 0x0d, 0xf7, 0xff, 0xd8, 0xe1, 0xfd, 0xf6, 0xf2, 0x0b, 0xfe, 0x01,
  0xfd, 0xed, 0xf4, 0xef, 0x02, 0x13, 0x27, 0xe3, 0xff, 0xfa, 0x0e, 0xd6,
  0x20, 0xfb, 0xef, 0xeb, 0xf2, 0x0a, 0x2d, 0xf6, 0xf8, 0xe5, 0xd7, 0xfb,
  0x23, 0x01, 0x15, 0x20, 0xee, 0x2b, 0xf9, 0x09, 0x0f, 0x0c, 0x07, 0x16,
  0xea, 0x13, 0xea, 0xf5, 0xfd, 0xfd, 0x17, 0xd7, 0x0c, 0xfa, 0xe9, 0xcf,
  0xfb, 0x17, 0x06, 0x07, 0xf6, 0xf7, 0x0f, 0xfc, 0xf7, 0x02, 0x1c, 0xeb,
  0x10, 0xee, 0x17, 0xe1, 0xee, 0xfb, 0x1f, 0xe5, 0xfb, 0xea, 0x1d, 0xf7,
  0xf9, 0x0c, 0x12, 0x1b, 0x0e, 0x0c, 0xfb, 0x0c, 0xf4, 0x21, 0xe7, 0xf8,
  0x16, 0x26, 0xe0, 0x0e, 0xeb, 0x07, 0xf8, 0xef, 0x20, 0x07, 0x05, 0x15,
  0xe5, 0xc8, 0xf8, 0xfe, 0xfc, 0x0b, 0xff, 0xe0, 0xf0, 0xcd, 0x05, 0xe9,
  0x1e, 0x0a, 0x22, 0xca, 0x05, 0xc6, 0xf0, 0xfe, 0xec, 0x19, 0x1b, 0xd2,
  0xcc, 0xd7, 0xf5, 0x1e, 0xf8, 0xe1, 0xfd, 0xcb, 0xd2, 0xeb, 0xe3, 0xf2,
  0xf2, 0xef, 0x1c, 0xd6, 0xd7, 0xdd, 0xe9, 0xd7, 0xe4, 0xf6, 0xf4, 0xed,
  0xca, 0xe6, 0x0c, 0xfc, 0xf7, 0xeb, 0xeb, 0xf7, 0xed, 0xea, 0x10, 0xef,
  0x1f, 0xfd, 0x23, 0xf1, 0x0f, 0xea, 0xfa, 0x1e, 0x0b, 0x29, 0x08, 0xf3,
  0xf1, 0x0f, 0x0c, 0xfb, 0xf6, 0x32, 0xe8, 0x0e, 0x01, 0xe8, 0xfe, 0x24,
  0x04, 0x03, 0xe5, 0xe9, 0xf3, 0xfa, 0xff, 0x09, 0x18, 0x03, 0xf5, 0xf0,
  0xe4, 0x04, 0x0b, 0xcf, 0x00, 0xf8, 0x1e, 0x05, 0xef, 0xea, 0xfa, 0x02,
  0xd9, 0x30, 0xf6, 0x16, 0x0b, 0xfe, 0x17, 0xf0, 0xe4, 0x1a, 0xf8, 0xce,
  0xf4, 0xf0, 0x28, 0xec, 0xf1, 0x0b, 0x00, 0xf3, 0x13, 0x09, 0x13, 0x06,
  0x15, 0x14, 0xf0, 0xe3, 0x0a, 0x03, 0x1d, 0x16, 0x06, 0x1f, 0x2c, 0x0d,
  0xdf, 0xd8, 0xf1, 0xf3, 0xfb, 0x4f, 0xfe, 0x05, 0xfd, 0x09, 0x17, 0x1f,
  0xf0, 0x0a, 0x09, 0xf8, 0xf2, 0xcb, 0xea, 0xe2, 0x09, 0x10, 0x16, 0xef,
  0x0a, 0xad, 0x0d, 0x05, 0xeb, 0x09, 0xd9, 0xe7, 0x0c, 0xd5, 0x17, 0xf3,
  0x21, 0xfb, 0xe3, 0xfa, 0xd8, 0xe7, 0xea, 0x08, 0xf3, 0x02, 0xfe, 0xe0,
  0x0c, 0xd6, 0xd2, 0x15, 0x25, 0x15, 0xee, 0xd6, 0xfa, 0xe6, 0xe5, 0x0b,
  0xfe, 0xf4, 0xee, 0x02, 0xdf, 0xe7, 0xf8, 0xf6, 0x02, 0x11, 0xf1, 0xfc,
  0xe5, 0xf5, 0xe7, 0x09, 0x1e, 0x0d, 0xf5, 0xdc, 0x19, 0xe8, 0x03, 0x23,
  0xd8, 0x10, 0x0c, 0xf9, 0x11, 0xff, 0x21, 0x14, 0x09, 0xf7, 0x0c, 0x0b,
  0xfb, 0xf9, 0x20, 0x35, 0xe3, 0x26, 0xff, 0xe8, 0x13, 0x0a, 0xee, 0xe5,
  0x00, 0x2e, 0xf3, 0x23, 0x01, 0xf9, 0x12, 0x19, 0xf3, 0x14, 0xff, 0xfa,
  0xfd, 0x00, 0xe4, 0x0f, 0xea, 0x30, 0x0d, 0xea, 0xee, 0x0a, 0x10, 0xdf,
  0xf9, 0xee, 0x0b, 0xe2, 0x20, 0x09, 0x05, 0x0f, 0xd7, 0x00, 0xfe, 0xed,
  0x04, 0x02, 0x16, 0xe7, 0xf7, 0x00, 0xfd, 0x10, 0x0a, 0xf7, 0x15, 0x24,
  0x0a, 0x15, 0x04, 0x0d, 0xf1, 0xf2, 0xd5, 0x07, 0xe8, 0x12, 0x03, 0xcf,
  0x06, 0x0e, 0xfb, 0x19, 0x0c, 0x17, 0xf5, 0x08, 0x02, 0xdd, 0xf6, 0xfc,
  0x04, 0x07, 0x0b, 0xe8, 0xff, 0xb3, 0x19, 0x26, 0xf8, 0xf9, 0xea, 0xc3,
  0xe7, 0xbd, 0x16, 0xf7, 0xea, 0x11, 0x0b, 0xd2, 0xfc, 0xbb, 0x04, 0x22,
  0x02, 0x29, 0xfd, 0xd2, 0xcd, 0xff, 0xf2, 0xf4, 0x07, 0xff, 0x29, 0xf0,
  0xc7, 0xdc, 0xe3, 0xe5, 0x18, 0x02, 0xe6, 0x07, 0xe0, 0xeb, 0xf9, 0xeb,
  0xdf, 0x0e, 0x1a, 0x0b, 0xcd, 0xda, 0xf9, 0xfa, 0x1b, 0x07, 0x00, 0x0c,
  0x0e, 0xdd, 0xfd, 0x00, 0x15, 0xe1, 0x0f, 0xfe, 0xfe, 0x19, 0xe8, 0x10,
  0xda, 0xf2, 0xd8, 0xfe, 0x0b, 0x01, 0x2c, 0xfe, 0x15, 0x03, 0xe1, 0xef,
  0x24, 0xfd, 0xff, 0xf5, 0x0c, 0x0c, 0x02, 0xf6, 0x01, 0xe4, 0xf0, 0xf1,
  0xfd, 0x13, 0xe3, 0x0f, 0x1b, 0x0e, 0x1e, 0xd6, 0x05, 0xf1, 0xe1, 0xd5,
  0x09, 0xed, 0x06, 0xf7, 0xf8, 0x0d, 0x05, 0xe4, 0x22, 0xf5, 0xf8, 0xfa,
  0x02, 0x1f, 0xf9, 0xef, 0x04, 0xf3, 0x09, 0x04, 0xef, 0x18, 0x19, 0x19,
  0x02, 0x01, 0xec, 0x0a, 0x16, 0x27, 0x09, 0x18, 0xf6, 0x03, 0xea, 0x0a,
  0xe5, 0x33, 0x06, 0x0c, 0x08, 0x0e, 0x0b, 0xfb, 0x15, 0x1d, 0x15, 0x09,
  0xe2, 0xc3, 0x1c, 0xee, 0xf9, 0x1c, 0x06, 0x13, 0xe5, 0xc2, 0xf6, 0x0f,
  0xed, 0x0b, 0xe4, 0xb9, 0xda, 0xaa, 0xef, 0xe3, 0xee, 0xec, 0x0b, 0xef,
  0xf3, 0xbf, 0x0d, 0xf6, 0xef, 0x0c, 0xf7, 0xee, 0xd7, 0x00, 0x0b, 0xd9,
  0xf1, 0xed, 0x17, 0x03, 0xdb, 0xd4, 0x06, 0xd7, 0xf3, 0x1b, 0x1b, 0xfb,
  0xe5, 0xca, 0xf8, 0xe6, 0xef, 0x04, 0x15, 0x0f, 0xf9, 0xde, 0x05, 0xe0,
  0x17, 0x17, 0x06, 0xf9, 0x0a, 0xec, 0x1d, 0xff, 0x0e, 0x01, 0x17, 0xf2,
  0xf8, 0x24, 0xe1, 0x0d, 0x1a, 0x10, 0x04, 0xef, 0xec, 0xff, 0x0f, 0x14,
  0x16, 0xe7, 0x11, 0x17, 0x0f, 0xd3, 0x12, 0x29, 0x29, 0x0c, 0x05, 0xfd,
  0x0d, 0xf6, 0x00, 0xeb, 0xee, 0x30, 0xf7, 0x0f, 0x1a, 0xea, 0xe6, 0xf8,
  0x01, 0x23, 0x0d, 0x1d, 0x22, 0x24, 0x14, 0xfd, 0x23, 0x31, 0x13, 0xfb,
  0x09, 0xfd, 0xea, 0x0f, 0x03, 0x2d, 0xf4, 0x0b, 0x21, 0x06, 0x15, 0xd9,
  0x0e, 0xfe, 0x02, 0x28, 0xf1, 0xf9, 0x27, 0xf8, 0xfe, 0x44, 0xf3, 0xf6,
  0xef, 0x1c, 0xc8, 0x04, 0xfc, 0x43, 0xee, 0xeb, 0xf8, 0xd7, 0xf3, 0x13,
  0x23, 0x1b, 0xf8, 0x06, 0xfe, 0xc4, 0xf4, 0x01, 0xe2, 0x09, 0x08, 0xe8,
  0xee, 0xc3, 0x1e, 0xed, 0xfb, 0x01, 0x19, 0xcd, 0xeb, 0xb7, 0x1f, 0x01,
  0xfa, 0x1a, 0x06, 0xe8, 0xda, 0xc4, 0x0f, 0xed, 0x04, 0x0b, 0x03, 0xcc,
  0x08, 0xd5, 0xeb, 0xed, 0x10, 0x10, 0x09, 0x09, 0x03, 0xe7, 0xff, 0xca,
  0x0b, 0x03, 0x01, 0x10, 0xdb, 0xcf, 0x13, 0xea, 0xe9, 0x20, 0xf3, 0xf7,
  0xcd, 0xd9, 0xff, 0xf4, 0xf4, 0x02, 0xfd, 0x19, 0x00, 0xe7, 0xfb, 0xf1,
  0x04, 0x02, 0x18, 0x16, 0xf5, 0x18, 0x06, 0x03, 0x00, 0x22, 0x10, 0xfc,
  0xfb, 0x0f, 0x01, 0x06, 0x04, 0x1a, 0x06, 0x1e, 0xe6, 0x0c, 0x18, 0x16,
  0x14, 0x05, 0xfd, 0xed, 0x05, 0x03, 0x0b, 0xe7, 0x15, 0xf4, 0x20, 0xff,
  0x15, 0xc1, 0xe6, 0xdf, 0x19, 0x04, 0x0c, 0xea, 0x28, 0xfe, 0xfb, 0xe5,
  0x21, 0x22, 0x0e, 0xfa, 0xf0, 0xfd, 0x1d, 0x05, 0xfe, 0x22, 0xec, 0xfe,
  0x07, 0xf7, 0x09, 0x22, 0xf8, 0x03, 0x29, 0x20, 0x03, 0x0d, 0x05, 0xf7,
  0xfb, 0x0b, 0xfb, 0x11, 0xec, 0xe8, 0xf7, 0x0d, 0xec, 0x46, 0xfc, 0xe1,
  0x09, 0xe0, 0xe3, 0x1a, 0xff, 0x13, 0x1e, 0xdf, 0x08, 0xa3, 0xf6, 0x02,
  0xea, 0xf0, 0x0a, 0x0a, 0xe7, 0xde, 0x13, 0x21, 0xe4, 0x0b, 0x28, 0xb0,
  0xf8, 0xcb, 0xfa, 0xd1, 0x22, 0x08, 0xf6, 0x0f, 0xf9, 0xca, 0x0c, 0xcd,
  0x09, 0x1f, 0x0b, 0x03, 0xea, 0xf7, 0x13, 0x0e, 0xe8, 0x0c, 0x19, 0x0c,
  0xdf, 0xda, 0x07, 0xd8, 0xe3, 0x25, 0xfd, 0x09, 0xe9, 0xe2, 0xee, 0xc9,
  0x05, 0x1a, 0x07, 0x18, 0xc8, 0xe6, 0x13, 0xff, 0x17, 0x19, 0x1b, 0xfc,
  0xea, 0xe3, 0xf0, 0xf0, 0x04, 0x00, 0x02, 0x0c, 0xfc, 0xdc, 0xf8, 0x02,
  0xe9, 0x21, 0x13, 0x0d, 0x05, 0xf3, 0x09, 0x28, 0x10, 0x22, 0x14, 0xf5,
  0xf5, 0xe7, 0x0d, 0x17, 0xeb, 0x1b, 0x08, 0xf5, 0xe5, 0xde, 0xee, 0x0a,
  0x02, 0x17, 0xfe, 0xfd, 0xf8, 0xf0, 0x1a, 0xf3, 0x16, 0x2e, 0xf1, 0x04,
  0x04, 0xff, 0x2f, 0xda, 0x14, 0x1a, 0xfc, 0xe4, 0x0f, 0xe8, 0xff, 0x0a,
  0xeb, 0x08, 0x0e, 0x00, 0xf8, 0x20, 0x15, 0xfa, 0x02, 0x08, 0xff, 0x02,
  0xed, 0x18, 0xe5, 0xdb, 0x10, 0x34, 0x01, 0xf8, 0xe7, 0xce, 0xeb, 0xf9,
  0xf4, 0x25, 0x18, 0xdc, 0x03, 0xbd, 0x13, 0x22, 0x1d, 0x23, 0x1e, 0xe4,
  0xeb, 0x9b, 0xef, 0x01, 0x02, 0x0d, 0xf2, 0xe3, 0xf1, 0xb1, 0x10, 0xfb,
  0x06, 0x23, 0xfc, 0xd6, 0x1d, 0xce, 0x07, 0xef, 0x0f, 0x1a, 0xdb, 0xe9,
  0x02, 0xbb, 0xfc, 0xf6, 0xea, 0x23, 0xf5, 0xd5, 0xdb, 0xdc, 0xfc, 0xd2,
  0x0e, 0x12, 0xfb, 0x25, 0xc8, 0xda, 0xfb, 0x02, 0xfc, 0x15, 0x01, 0x12,
  0xe5, 0xe3, 0x03, 0xdf, 0x06, 0x29, 0x01, 0x29, 0xf2, 0xee, 0xff, 0xfd,
  0x28, 0x31, 0x0c, 0x01, 0xe3, 0x01, 0x12, 0xe5, 0x1d, 0x28, 0x1e, 0x0a,
  0x01, 0x01, 0x02, 0x06, 0x17, 0x0f, 0x0c, 0x01, 0xf7, 0x11, 0xef, 0xf4,
  0xef, 0x11, 0x03, 0xf2, 0x07, 0x17, 0x0d, 0x38, 0xfc, 0x09, 0xf2, 0x0e,
  0xf3, 0xf6, 0xf2, 0xfc, 0x15, 0xff, 0x15, 0x0b, 0xec, 0xdf, 0xfb, 0x07,
  0x0e, 0x1e, 0x12, 0xec, 0xf8, 0xd4, 0x04, 0xf3, 0xe9, 0x24, 0xf3, 0xfa,
  0x04, 0xf9, 0x0a, 0x0f, 0xf8, 0x2b, 0xfb, 0xf7, 0x0f, 0x0c, 0xfe, 0xdb,
  0xf1, 0x2f, 0xfe, 0x1c, 0xf8, 0xff, 0xfa, 0x19, 0xf7, 0x1b, 0xfd, 0x06,
  0xe6, 0xe0, 0x04, 0x13, 0x01, 0x2d, 0xfc, 0xec, 0xfd, 0xb6, 0xdb, 0x26,
  0x1b, 0x27, 0x02, 0xd6, 0xcf, 0x8f, 0xfc, 0x08, 0xee, 0x0f, 0xee, 0xf6,
  0xf2, 0xb6, 0xf9, 0x14, 0xe2, 0x19, 0xfc, 0xc5, 0xe5, 0xbe, 0xe5, 0xda,
  0x25, 0x08, 0x21, 0xfc, 0xef, 0xdb, 0xf9, 0x14, 0xf6, 0x10, 0xf4, 0xf0,
  0xe1, 0xf8, 0x0a, 0xdc, 0xf9, 0x0b, 0x10, 0xed, 0xd9, 0x04, 0xfb, 0xc2,
  0x05, 0x0f, 0x23, 0xf9, 0xd8, 0xbb, 0x04, 0xed, 0x17, 0x15, 0xdd, 0x15,
  0xdf, 0xef, 0x07, 0xde, 0x15, 0x27, 0x01, 0x06, 0xfe, 0x00, 0xf0, 0x19,
  0xee, 0x14, 0x2c, 0x12, 0x09, 0xe4, 0x1e, 0x08, 0x1b, 0x10, 0x0d, 0x0e,
  0xf8, 0x06, 0xec, 0x0f, 0xf6, 0xf2, 0xfc, 0x32, 0x25, 0xf3, 0x11, 0x06,
  0xe9, 0x16, 0x00, 0x02, 0xd8, 0x01, 0x00, 0xf7, 0xef, 0x2d, 0x11, 0x08,
  0xf5, 0xe6, 0xe4, 0x02, 0xf4, 0x26, 0x26, 0xf4, 0xf1, 0xe2, 0x1b, 0x03,
  0x19, 0x2c, 0x09, 0xda, 0xfd, 0xec, 0x12, 0xee, 0xe9, 0x1b, 0x26, 0x0d,
  0xec, 0x1c, 0x0f, 0xe2, 0xed, 0x05, 0x2f, 0x1d, 0x06, 0xf9, 0xf6, 0xe8,
  0x05, 0x16, 0x11, 0x0d, 0xc9, 0xf7, 0xe9, 0x03, 0x21, 0x2f, 0x14, 0x1d,
  0xf3, 0xed, 0xe3, 0x30, 0x01, 0x14, 0x03, 0xd1, 0xe1, 0xab, 0x0c, 0x17,
  0xf5, 0x18, 0xdf, 0xdc, 0xf6, 0xb8, 0x1b, 0x0c, 0xea, 0x26, 0x1f, 0xb3,
  0x0e, 0xca, 0xf1, 0xf7, 0xfe, 0x1a, 0x17, 0xec, 0x14, 0xae, 0xf1, 0x05,
  0x1e, 0x2c, 0x17, 0xf1, 0xd7, 0xd6, 0xd3, 0xd7, 0xf6, 0xf0, 0xfa, 0xea,
  0xf1, 0xdf, 0xda, 0xde, 0x19, 0x19, 0xe8, 0x0a, 0xea, 0xdc, 0xf3, 0xde,
  0x13, 0x05, 0xf6, 0xfc, 0x08, 0xfc, 0xf6, 0xfe, 0xec, 0x13, 0xfb, 0xf3,
  0x0b, 0xce, 0x02, 0xf9, 0x0b, 0x02, 0x0e, 0xea, 0x0f, 0xff, 0xfa, 0xed,
  0x12, 0x19, 0x0e, 0x27, 0x0b, 0xfd, 0x1f, 0x22, 0xf2, 0xf2, 0x07, 0xfd,
  0xf7, 0xdd, 0x15, 0xf7, 0xf5, 0x12, 0xef, 0xfe, 0xdb, 0xf5, 0xfc, 0xea,
  0xfb, 0x0c, 0x08, 0x0f, 0xe5, 0xfa, 0xf1, 0xdc, 0xfd, 0x0b, 0xdd, 0x0f,
  0x0e, 0xf7, 0x1b, 0xe9, 0xfd, 0x25, 0x0a, 0x1e, 0x0f, 0xea, 0xfc, 0x19,
  0xe0, 0x14, 0xdb, 0xeb, 0x06, 0x29, 0xf0, 0xf6, 0xf4, 0x23, 0x05, 0x24,
  0xd6, 0x07, 0x2b, 0xfc, 0xfd, 0x0e, 0x0a, 0x1e, 0xb4, 0xfb, 0x01, 0x06,
  0x0a, 0x2a, 0xff, 0x1d, 0xe1, 0xd6, 0x1b, 0x36, 0x16, 0x31, 0xe0, 0xc7,
  0xf3, 0x97, 0xdd, 0xec, 0x16, 0x07, 0xeb, 0xf2, 0x04, 0xbc, 0xff, 0xd3,
  0xcd, 0x28, 0xe9, 0xc5, 0x05, 0xd2, 0x04, 0xd1, 0xf8, 0x15, 0xfc, 0xf9,
  0x03, 0xd9, 0x11, 0xeb, 0x27, 0x13, 0x17, 0xdd, 0xc3, 0xf7, 0xef, 0xdb,
  0x0b, 0x15, 0xfa, 0x03, 0xe0, 0xd6, 0xdd, 0xe4, 0x04, 0x1b, 0x0a, 0x1b,
  0xc8, 0xe1, 0xfa, 0xde, 0xfc, 0x01, 0x15, 0x1b, 0x0a, 0xdd, 0xfc, 0xdc,
  0xdf, 0xfd, 0x1a, 0xf9, 0xf1, 0xf2, 0xfa, 0xfc, 0x19, 0x23, 0xda, 0x19,
  0xe2, 0xe0, 0x22, 0x08, 0xf8, 0x26, 0xeb, 0xf6, 0xf9, 0x22, 0x0b, 0xed,
  0x16, 0x04, 0xf6, 0x1f, 0x02, 0xf9, 0xed, 0x0b, 0xe3, 0x1e, 0x0e, 0x3a,
  0x14, 0x05, 0xf9, 0xef, 0x19, 0x2c, 0x00, 0x1b, 0xeb, 0xdd, 0x16, 0x02,
  0xe7, 0x2f, 0x1b, 0x13, 0xfc, 0xe1, 0xf6, 0xe2, 0xfa, 0x3f, 0x13, 0x0f,
  0x0e, 0xe4, 0x0b, 0x18, 0xdc, 0x26, 0x01, 0xef, 0x11, 0x03, 0x11, 0x09,
  0xe7, 0x13, 0x01, 0x2c, 0xf4, 0x16, 0xf3, 0x02, 0x03, 0xfd, 0xfc, 0x0d,
  0xca, 0xd5, 0xe0, 0x0a, 0xf6, 0x23, 0x04, 0x07, 0xfa, 0xe8, 0xf7, 0x21,
  0xfe, 0x0e, 0x11, 0xf2, 0xc3, 0xaa, 0xd2, 0x06, 0xe3, 0x29, 0xee, 0xfb,
  0x12, 0xb4, 0xf6, 0xcd, 0xfd, 0x26, 0xe3, 0xd7, 0x0f, 0xc3, 0xeb, 0xda,
  0x18, 0x36, 0x04, 0xea, 0xda, 0xdc, 0xfc, 0xf3, 0xf1, 0x22, 0xfe, 0xf2,
  0x00, 0xd6, 0xf9, 0xd3, 0x1e, 0x0f, 0x14, 0x10, 0xbf, 0xe1, 0xce, 0xdc,
  0xf6, 0x17, 0xfa, 0xfd, 0xe7, 0xd8, 0xf1, 0xe5, 0x00, 0x31, 0x1d, 0x05,
  0xd2, 0xf6, 0xf8, 0x01, 0xf7, 0x26, 0x11, 0x18, 0xf6, 0xe5, 0xf0, 0xef,
  0xe8, 0x15, 0x28, 0x25, 0xe0, 0x13, 0xee, 0xca, 0xf1, 0x16, 0xef, 0x29,
  0x24, 0x0b, 0xe2, 0x27, 0xfd, 0x1e, 0xda, 0x24, 0x16, 0x1c, 0xe7, 0xf0,
  0x10, 0xfb, 0xe0, 0xff, 0xfe, 0xf1, 0x0e, 0xee, 0x0c, 0x0d, 0xfc, 0xfc,
  0x05, 0x0c, 0x0b, 0xe4, 0x20, 0x1f, 0x1f, 0x14, 0xf5, 0xd7, 0x01, 0xd5,
  0x0f, 0x20, 0xe6, 0xf7, 0x02, 0xce, 0xee, 0xfe, 0xf7, 0x25, 0x23, 0xee,
  0x1c, 0x14, 0x1c, 0xf9, 0xe8, 0x09, 0x0d, 0x11, 0xe1, 0x08, 0x01, 0xfc,
  0x03, 0x06, 0x09, 0x17, 0xc6, 0xe7, 0xeb, 0x28, 0xf3, 0x14, 0xfe, 0x11,
  0xdb, 0xf2, 0xd8, 0x27, 0x29, 0x26, 0x16, 0xd9, 0xe1, 0xa9, 0x05, 0xf1,
  0x0a, 0x16, 0x08, 0xe1, 0xf9, 0xb1, 0xf4, 0xdb, 0xe3, 0x0c, 0x27, 0xc8,
  0xe4, 0xbd, 0x01, 0xda, 0x13, 0x10, 0x1b, 0xc8, 0x0b, 0xba, 0xe8, 0xd8,
  0x15, 0x21, 0x11, 0xd3, 0xed, 0xe5, 0xed, 0xb0, 0xeb, 0x10, 0xfb, 0xf8,
  0xe7, 0xe2, 0x02, 0xe3, 0x1b, 0x1a, 0x22, 0xf6, 0xd6, 0xd2, 0x0c, 0xcd,
  0x14, 0x18, 0x05, 0x0d, 0xe5, 0xe4, 0xe5, 0xeb, 0x0d, 0x26, 0x04, 0xfd,
  0xdc, 0xf4, 0x06, 0xdb, 0xfe, 0x0c, 0xf9, 0x16, 0x05, 0xff, 0xfa, 0xec,
  0x07, 0x18, 0x04, 0xfb, 0xfa, 0x0d, 0x10, 0x27, 0xfc, 0x07, 0x13, 0x20,
  0xf4, 0x0a, 0x1d, 0x00, 0x1a, 0x0a, 0xf3, 0x23, 0xf6, 0xde, 0x1f, 0xf5,
  0x21, 0x0f, 0xfa, 0xf9, 0xfb, 0xee, 0xf9, 0xd5, 0x01, 0x10, 0x22, 0x07,
  0x03, 0xf3, 0x0d, 0x02, 0x16, 0x25, 0xe7, 0x0d, 0x0e, 0xd7, 0x16, 0xec,
  0x17, 0x26, 0x06, 0xe0, 0x12, 0x22, 0x01, 0xf4, 0xea, 0xfa, 0x0a, 0xfa,
  0x1d, 0x1d, 0x04, 0x22, 0x02, 0x17, 0xdf, 0xfc, 0xcd, 0xff, 0x10, 0x1f,
  0x0d, 0x3a, 0xdf, 0x0e, 0xe2, 0xdd, 0xd4, 0x23, 0x26, 0x0a, 0xff, 0xe9,
  0x01, 0x9d, 0xf4, 0xdc, 0xf6, 0x22, 0x0b, 0xf5, 0xcf, 0xab, 0xfc, 0xe7,
  0x03, 0x24, 0xe5, 0xa9, 0xea, 0xc2, 0xfc, 0xdd, 0xfc, 0x22, 0x16, 0xe0,
  0xe8, 0xcd, 0xff, 0xbd, 0xf7, 0x2e, 0xf4, 0xc5, 0xe9, 0xdd, 0x01, 0xdb,
  0x18, 0x0f, 0xf8, 0x09, 0xc4, 0xe3, 0xed, 0xbd, 0x26, 0x1a, 0x14, 0x06,
  0xdf, 0xab, 0xcb, 0xd4, 0x0b, 0x1e, 0x04, 0xe4, 0xeb, 0xb7, 0xed, 0xe1,
  0x0c, 0x0c, 0x17, 0x00, 0x13, 0xee, 0xdc, 0xb5, 0x0f, 0xf6, 0x05, 0xf1,
  0xe5, 0xe8, 0xf3, 0xfb, 0x1a, 0x0a, 0xf4, 0x2a, 0x07, 0xfb, 0x1b, 0xef,
  0xef, 0x03, 0xf4, 0xfb, 0x04, 0xd7, 0x2d, 0x06, 0xf1, 0x16, 0x15, 0x02,
  0x04, 0xea, 0x12, 0x09, 0xf2, 0x24, 0x24, 0x05, 0x0c, 0xce, 0x20, 0xe6,
  0x09, 0x21, 0x0b, 0x19, 0x0f, 0x06, 0xe8, 0xe3, 0x18, 0x16, 0x19, 0x1d,
  0x09, 0x02, 0xee, 0x23, 0x04, 0x03, 0xfa, 0xe1, 0xe3, 0x06, 0xde, 0xe6,
  0xfd, 0xf9, 0x25, 0x0e, 0x16, 0x1e, 0x09, 0xf5, 0xfc, 0xff, 0x23, 0x10,
  0xee, 0xe7, 0x26, 0x12, 0x11, 0x28, 0xfd, 0xfc, 0xff, 0xf7, 0xf1, 0x1e,
  0x37, 0x26, 0x08, 0xdb, 0xea, 0xcd, 0xe1, 0xe9, 0xf4, 0x14, 0x00, 0xe2,
  0xfd, 0xc0, 0xf5, 0xba, 0x07, 0x22, 0x04, 0xbd, 0x0c, 0xcc, 0xeb, 0xd5,
  0x15, 0x23, 0xdf, 0xdd, 0xf6, 0xd7, 0xf6, 0xc8, 0x12, 0x27, 0xfb, 0xec,
  0xcf, 0xe2, 0xde, 0xdf, 0x09, 0x18, 0x08, 0x08, 0xc6, 0xbf, 0xc5, 0xc9,
  0xdc, 0x0b, 0x2a, 0xfa, 0xe4, 0xd2, 0x05, 0xcd, 0xfa, 0x27, 0x1a, 0x01,
  0xe7, 0xc8, 0xf0, 0xcf, 0x05, 0x28, 0xfa, 0x0f, 0xe8, 0xc7, 0xfb, 0xae,
  0x0a, 0xfc, 0x05, 0x0e, 0x0a, 0xf8, 0x19, 0xe6, 0xf9, 0xfa, 0xe3, 0xf3,
  0x17, 0xff, 0xfc, 0xfd, 0x1c, 0x03, 0xe5, 0x11, 0x35, 0xd3, 0xf2, 0xea,
  0x28, 0x17, 0x0a, 0x0b, 0xf4, 0xf6, 0x02, 0xf0, 0x17, 0x1f, 0x0b, 0x0a,
  0x06, 0xd8, 0xeb, 0xff, 0x16, 0x0d, 0x05, 0xdf, 0xf1, 0xe3, 0x11, 0xee,
  0xf1, 0x21, 0x00, 0x01, 0x0e, 0xe9, 0x0a, 0xdc, 0xee, 0x12, 0x2c, 0xfa,
  0xf7, 0x16, 0x00, 0x2c, 0xed, 0xff, 0x00, 0x21, 0xec, 0x22, 0x1c, 0x0d,
  0xf5, 0x05, 0xe2, 0xf9, 0xee, 0x00, 0x09, 0x37, 0x13, 0x29, 0x0a, 0x0c,
  0x00, 0xb3, 0x09, 0x0c, 0x1e, 0x1e, 0xdb, 0xe6, 0xe1, 0xcd, 0x03, 0xeb,
  0xdf, 0x21, 0x21, 0xe1, 0xd4, 0xb6, 0xed, 0xd4, 0xed, 0x1e, 0x17, 0xd9,
  0xef, 0xb6, 0xf8, 0xb4, 0x14, 0x00, 0xe6, 0xbf, 0xcf, 0xba, 0xf3, 0xd2,
  0xf4, 0x2f, 0xfc, 0xe3, 0xdd, 0xdf, 0xf5, 0xcb, 0x11, 0xf7, 0xf2, 0x05,
  0xe4, 0xec, 0xe0, 0xd9, 0xe5, 0x22, 0x18, 0xe8, 0xcb, 0xc9, 0x04, 0xe1,
  0x04, 0x08, 0xf8, 0x05, 0xde, 0xf3, 0x0f, 0xb0, 0xf7, 0x24, 0x19, 0xe0,
  0xeb, 0xdc, 0xed, 0xd6, 0xee, 0x01, 0x15, 0x0f, 0xe2, 0x00, 0x0b, 0xe5,
  0x11, 0x12, 0x1d, 0xf6, 0x15, 0x01, 0xfd, 0xfd, 0xf2, 0x0f, 0x04, 0x1d,
  0x26, 0xee, 0xfe, 0x15, 0xef, 0x2e, 0x05, 0xf5, 0xf9, 0xc0, 0x09, 0x0a,
  0x18, 0x21, 0x1a, 0x15, 0x04, 0xeb, 0xf6, 0xc0, 0xf5, 0x07, 0x14, 0x12,
  0x03, 0xfc, 0x01, 0xd3, 0x14, 0x11, 0x00, 0x26, 0x05, 0xfc, 0x09, 0xf2,
  0xea, 0x16, 0x04, 0xf0, 0x2d, 0xff, 0xf5, 0xf9, 0x06, 0xf5, 0x16, 0x41,
  0x08, 0x29, 0xd6, 0x10, 0x0d, 0x09, 0x15, 0x12, 0xec, 0x0a, 0x0e, 0x0a,
  0xfb, 0x45, 0x04, 0xf2, 0xfb, 0xdd, 0x13, 0x23, 0x18, 0x22, 0xf6, 0xca,
  0xc0, 0xa4, 0xe3, 0xde, 0xe6, 0x04, 0x05, 0xef, 0xe8, 0xb6, 0xeb, 0xd2,
  0xf5, 0x39, 0x2b, 0xbd, 0xe6, 0xb6, 0xf6, 0xa8, 0x24, 0x22, 0xfd, 0xc7,
  0xda, 0xc5, 0xce, 0xc6, 0x0b, 0x17, 0x0b, 0xdb, 0xd2, 0xd9, 0x0e, 0xba,
  0x1b, 0xef, 0x15, 0xdf, 0xc8, 0xb1, 0xff, 0xba, 0x14, 0x23, 0xf6, 0xf9,
  0xbc, 0xdc, 0xe4, 0xd1, 0x05, 0x15, 0xf4, 0xe3, 0xe3, 0xe6, 0xf0, 0xd5,
  0x2a, 0x1c, 0xfc, 0x03, 0xf5, 0xdc, 0xff, 0xb5, 0x07, 0x05, 0xe8, 0xf1,
  0xfd, 0xe0, 0xfe, 0xd5, 0xff, 0x20, 0xfe, 0x0d, 0xfa, 0xf2, 0x10, 0x0e,
  0xec, 0x05, 0xe5, 0x0d, 0x1b, 0xf6, 0x00, 0xf6, 0x25, 0x13, 0x02, 0x1a,
  0x00, 0xd8, 0xe5, 0xe2, 0x03, 0x28, 0x11, 0x00, 0xe6, 0x05, 0x08, 0xe5,
  0x0e, 0x00, 0x02, 0x05, 0xff, 0xe2, 0xe6, 0xf3, 0xf7, 0x10, 0x11, 0x16,
  0x12, 0xda, 0xf2, 0xdc, 0x03, 0xf5, 0x13, 0x0c, 0xe6, 0x20, 0x1c, 0x0a,
  0xe8, 0xea, 0x07, 0x1a, 0xf7, 0x38, 0xd8, 0x26, 0x02, 0x0e, 0x10, 0x06,
  0xe2, 0x06, 0x05, 0x28, 0x18, 0x3e, 0x0b, 0xf2, 0xf4, 0xd0, 0xf6, 0x08,
  0x2f, 0x0b, 0xe6, 0xe7, 0xe8, 0xcc, 0xee, 0xf5, 0xff, 0x10, 0xe9, 0xda,
  0xdc, 0xc7, 0x1a, 0xbb, 0xf9, 0x23, 0xeb, 0xce, 0xde, 0xcf, 0x01, 0xd6,
  0x06, 0x06, 0xd8, 0xc7, 0xd0, 0xba, 0xf3, 0xc3, 0x14, 0x31, 0x02, 0xe5,
  0xeb, 0xf3, 0xda, 0xba, 0x00, 0x14, 0xfd, 0xef, 0xf9, 0xdc, 0xeb, 0xbd,
  0xfe, 0x18, 0xea, 0x07, 0xce, 0xbe, 0xd4, 0xa0, 0x17, 0x37, 0xeb, 0x0e,
  0xe4, 0xd2, 0xe5, 0xc3, 0x11, 0x10, 0xf3, 0xf3, 0xfb, 0xee, 0xe7, 0xcc,
  0xfa, 0x0c, 0xfa, 0xfd, 0x09, 0xf9, 0x08, 0xbd, 0x20, 0x1e, 0xf6, 0xf5,
  0x10, 0xfd, 0x04, 0xff, 0x02, 0x09, 0x03, 0xe3, 0x08, 0xdd, 0x28, 0x2a,
  0x19, 0x21, 0x09, 0x2c, 0xfd, 0xf4, 0x0a, 0xfc, 0xf5, 0x10, 0xf5, 0xff,
  0x05, 0xef, 0xf6, 0xf7, 0xec, 0x09, 0xe2, 0x10, 0x0b, 0x0c, 0x00, 0xef,
  0x00, 0x1b, 0x00, 0x18, 0x1d, 0xea, 0x0e, 0x00, 0xf0, 0x09, 0x0b, 0xee,
  0x20, 0x0c, 0x11, 0x17, 0xe1, 0x00, 0xe6, 0x28, 0xf8, 0x0c, 0xf5, 0xff,
  0x0f, 0x05, 0xff, 0x08, 0xcd, 0x16, 0x05, 0x1b, 0x07, 0x4c, 0xdc, 0xe9,
  0xdd, 0xf1, 0xf8, 0x18, 0x31, 0x06, 0xf8, 0xc6, 0xbe, 0xb2, 0xe8, 0xef,
  0xe0, 0x1d, 0x05, 0xce, 0xd6, 0xbc, 0xd8, 0xe2, 0xf1, 0x36, 0xeb, 0xbd,
  0xe4, 0xcf, 0xf0, 0xb2, 0xee, 0x14, 0xe8, 0xec, 0xe6, 0xcd, 0xe3, 0xc3,
  0xfe, 0x36, 0x04, 0xce, 0xb3, 0xd4, 0xf2, 0xde, 0xff, 0x16, 0x0d, 0xdb,
  0xcf, 0xda, 0xe8, 0xae, 0x01, 0x0a, 0x10, 0xf1, 0xe4, 0xe5, 0x0b, 0xd2,
  0x06, 0x26, 0x0d, 0xf8, 0xe3, 0xd3, 0xe5, 0xc9, 0x04, 0x02, 0xe9, 0xf9,
  0xf5, 0xf3, 0x12, 0xd7, 0x03, 0xfa, 0x0e, 0xf6, 0xea, 0xeb, 0xeb, 0xe6,
  0x12, 0xfb, 0xec, 0x00, 0xfa, 0x20, 0x23, 0x1f, 0xf2, 0xfc, 0x11, 0x00,
  0x17, 0xde, 0x16, 0x03, 0x08, 0x0b, 0xfb, 0x10, 0x0a, 0xd1, 0x06, 0x03,
  0xeb, 0x0a, 0x08, 0x00, 0x0e, 0xe4, 0xd3, 0xf4, 0x09, 0x0c, 0x14, 0xde,
  0xfa, 0xfd, 0xee, 0x02, 0x02, 0x0b, 0x13, 0xfe, 0xe6, 0x13, 0x0a, 0xf3,
  0x1b, 0x05, 0x01, 0x20, 0xf5, 0x0e, 0xee, 0xe1, 0xed, 0x02, 0x16, 0x32,
  0x0d, 0x19, 0xfd, 0xd8, 0xfb, 0x02, 0xed, 0x08, 0xce, 0xef, 0xf6, 0x0f,
  0x0f, 0x4f, 0xfa, 0x06, 0xbe, 0xaa, 0xfd, 0xff, 0x40, 0x1b, 0x04, 0xf0,
  0xe7, 0x81, 0xef, 0xf5, 0x04, 0x24, 0xee, 0xe5, 0xda, 0x9f, 0x02, 0xf0,
  0x17, 0x43, 0xf6, 0xb0, 0xd6, 0x9a, 0x0c, 0xe4, 0x3e, 0x33, 0x13, 0xda,
  0xfc, 0x9f, 0xf8, 0xd9, 0x34, 0x32, 0xfd, 0xdb, 0xfc, 0xb2, 0xe9, 0xc4,
  0x1b, 0x06, 0x00, 0x08, 0xce, 0xbd, 0xe9, 0xa8, 0x1e, 0x09, 0xfc, 0xe0,
  0xef, 0xb3, 0xd6, 0xd0, 0x1b, 0x1f, 0xfa, 0x0b, 0xe2, 0xd1, 0x0c, 0xcd,
  0x26, 0x24, 0xde, 0xf3, 0xfb, 0xc2, 0x0c, 0xe7, 0x24, 0x08, 0x01, 0x12,
  0x1f, 0xe9, 0xff, 0xe0, 0x00, 0x0f, 0x29, 0xf8, 0x20, 0x06, 0x0a, 0xf1,
  0x2b, 0x02, 0x1f, 0xfa, 0x14, 0xe8, 0x0a, 0xf6, 0x18, 0x05, 0x0f, 0xe4,
  0xff, 0xde, 0xef, 0xd9, 0x03, 0x05, 0xf5, 0x13, 0x06, 0xdd, 0x06, 0x07,
  0x18, 0x02, 0x09, 0xec, 0xeb, 0x06, 0x17, 0xc1, 0x0a, 0xf2, 0x0f, 0x06,
  0xf3, 0xe3, 0x03, 0xe2, 0xf4, 0xfb, 0x03, 0x03, 0xfd, 0x17, 0x0c, 0x16,
  0xef, 0x03, 0x10, 0x13, 0xe7, 0x30, 0xf6, 0xf7, 0xfb, 0x05, 0xf9, 0x21,
  0xce, 0xde, 0xf3, 0x44, 0x09, 0x3d, 0xed, 0xdd, 0xdb, 0xb2, 0x0c, 0x44,
  0x0e, 0x11, 0x16, 0xe1, 0xe9, 0x90, 0xe0, 0x09, 0x08, 0x15, 0x1a, 0xd3,
  0xcb, 0x8e, 0xf7, 0x12, 0x00, 0x10, 0x02, 0xdf, 0x03, 0x9e, 0xe4, 0x02,
  0x3a, 0x16, 0xf9, 0x01, 0x04, 0x95, 0x19, 0xfc, 0x2b, 0x16, 0xfb, 0xe6,
  0xd9, 0x95, 0xd3, 0xf9, 0x03, 0x01, 0x08, 0xf4, 0xdf, 0x98, 0xfb, 0xeb,
  0x03, 0xef, 0x1e, 0xf8, 0xd8, 0x9e, 0xf8, 0x03, 0x03, 0x22, 0xf0, 0xe7,
  0x02, 0xb2, 0x06, 0xec, 0x09, 0x21, 0x02, 0xfd, 0xec, 0xce, 0x09, 0xdb,
  0xf6, 0xfb, 0x02, 0x04, 0x0f, 0xd1, 0xe9, 0xfd, 0xfd, 0x1a, 0xd8, 0x11,
  0x00, 0xed, 0x0a, 0x0d, 0x0e, 0xf7, 0x0d, 0xfe, 0xf9, 0xe3, 0x08, 0xf0,
  0xeb, 0x13, 0x14, 0xf0, 0xef, 0xd3, 0xdd, 0xfc, 0x04, 0x03, 0x15, 0xf5,
  0x0f, 0xf4, 0xe6, 0x0b, 0x03, 0x0b, 0xf5, 0xf9, 0x0e, 0xf8, 0x19, 0x0c,
  0x06, 0x1a, 0x1d, 0x0a, 0x11, 0x29, 0xf5, 0xf2, 0x0f, 0xfd, 0x15, 0x13,
  0x1c, 0x17, 0x0d, 0xf2, 0x02, 0xf3, 0x09, 0x04, 0x04, 0x35, 0xe3, 0x12,
  0x0e, 0x0f, 0xe7, 0x1b, 0xef, 0xff, 0xe1, 0x27, 0xf9, 0x44, 0xf4, 0xf4,
  0xc4, 0xa1, 0xdb, 0x2e, 0x1c, 0x1b, 0xf6, 0x18, 0xf6, 0x96, 0xf0, 0x0d,
  0x01, 0x1a, 0x24, 0xf9, 0xce, 0x97, 0xdc, 0x14, 0x02, 0x21, 0x02, 0x0b,
  0xea, 0xbc, 0xee, 0x31, 0x28, 0xfd, 0xf5, 0x19, 0x00, 0xa8, 0xfd, 0xf5,
  0x2d, 0xfa, 0xe0, 0x02, 0x1a, 0x96, 0xbb, 0x17, 0x04, 0x04, 0x05, 0x08,
  0x04, 0x9d, 0xe6, 0x0b, 0x05, 0xe9, 0x18, 0x1d, 0xff, 0xbb, 0x08, 0xe8,
  0x29, 0xf6, 0xfb, 0xfe, 0xee, 0xb8, 0x00, 0xe1, 0x0a, 0x2b, 0xfe, 0x05,
  0x08, 0xbd, 0xf9, 0xed, 0xe0, 0x00, 0xdd, 0x02, 0x00, 0xbb, 0xe2, 0x12,
  0x1c, 0x1b, 0xf5, 0x18, 0x22, 0xe5, 0x10, 0x05, 0xff, 0xe4, 0xf2, 0x1c,
  0x0d, 0xf4, 0xd6, 0x19, 0x1e, 0x12, 0xf7, 0x04, 0x0b, 0xe3, 0x02, 0x15,
  0xf2, 0x0d, 0xfe, 0xf7, 0x18, 0x01, 0x13, 0xf0, 0xf0, 0x2d, 0x1d, 0x13,
  0x0e, 0xff, 0x0c, 0xf7, 0x0c, 0x08, 0x1c, 0x08, 0x22, 0xf6, 0xdd, 0x05,
  0x17, 0x20, 0x01, 0x18, 0x25, 0x15, 0xe7, 0x2a, 0xd6, 0x14, 0x25, 0x22,
  0xf8, 0x1e, 0x06, 0xf3, 0xf6, 0x00, 0xfa, 0x09, 0x01, 0xee, 0x05, 0xef,
  0xee, 0xfb, 0x02, 0x07, 0x10, 0x06, 0x0d, 0x0c, 0xe1, 0x05, 0x09, 0xfe,
  0xfa, 0x0a, 0xee, 0xfc, 0x17, 0x14, 0xfe, 0xf5, 0xe5, 0xf2, 0x04, 0xf4,
  0x19, 0x06, 0xf4, 0x07, 0xe3, 0xee, 0xfd, 0xe0, 0x02, 0xfe, 0xed, 0x08,
  0xe9, 0x12, 0x0e, 0xfd, 0xfa, 0x16, 0xe3, 0x0d, 0xdc, 0xff, 0xff, 0xf8,
  0x09, 0x23, 0xf1, 0xfa, 0x18, 0x01, 0xf9, 0x2b, 0x20, 0x0b, 0xff, 0xed,
  0xfb, 0x01, 0xfb, 0xf3, 0x04, 0x27, 0x16, 0x07, 0xda, 0x12, 0x10, 0x0e,
  0xf8, 0x0c, 0x0e, 0x1d, 0x17, 0xd5, 0xff, 0xf6, 0x05, 0x1a, 0x1e, 0xf8,
  0xda, 0xf4, 0xec, 0x00, 0xfe, 0x0e, 0xf4, 0x0b, 0xf9, 0xf6, 0xeb, 0x1d,
  0xff, 0xfa, 0x16, 0x0c, 0xfc, 0xd7, 0xfb, 0x0b, 0x0e, 0xde, 0x0c, 0xe5,
  0x19, 0x11, 0xfc, 0xf2, 0xec, 0x00, 0xf0, 0xd5, 0xf6, 0x04, 0x1f, 0xef,
  0x19, 0xe6, 0x08, 0xf4, 0xea, 0xfe, 0x02, 0xe2, 0x06, 0xfe, 0x08, 0xf2,
  0x0e, 0x29, 0x05, 0x25, 0x0b, 0xf3, 0x12, 0x05, 0xd5, 0xfb, 0xea, 0xe9,
  0xf8, 0xdf, 0xd3, 0xfb, 0x10, 0xeb, 0xff, 0x06, 0xe0, 0x0c, 0xe1, 0xd7,
  0x04, 0xe4, 0x1f, 0xeb, 0xf8, 0xeb, 0xe7, 0xfd, 0xf8, 0xfd, 0xff, 0x19,
  0xef, 0x10, 0x01, 0x06, 0xed, 0x00, 0x0b, 0xf8, 0x07, 0x0c, 0x0c, 0xf2,
  0xe8, 0x10, 0xec, 0xfb, 0x17, 0x0c, 0xfd, 0x27, 0xec, 0x1d, 0xf3, 0xf5,
  0x05, 0x15, 0xfc, 0x23, 0xed, 0x12, 0xe6, 0xe3, 0x20, 0xff, 0xf9, 0x13,
  0x0e, 0x14, 0x02, 0x00, 0x1b, 0xe8, 0x20, 0xd5, 0xfd, 0xff, 0x15, 0xff,
  0x11, 0x18, 0xef, 0xff, 0x03, 0x08, 0x00, 0x25, 0x20, 0x1c, 0xee, 0x18,
  0x06, 0xf5, 0x0d, 0xf6, 0x2a, 0x1c, 0x0a, 0xd3, 0xfe, 0xe7, 0x19, 0xf5,
  0x15, 0x06, 0x0c, 0x24, 0x0a, 0xfa, 0xf1, 0xea, 0xe6, 0x00, 0x02, 0x23,
  0x1b, 0x05, 0xe4, 0x09, 0x17, 0x04, 0x18, 0xf8, 0x0f, 0x01, 0xd6, 0xf3,
  0xf7, 0xfa, 0x20, 0x08, 0x11, 0xfd, 0x0e, 0xf3, 0xf0, 0xec, 0x07, 0x1f,
  0xd8, 0xfe, 0x0b, 0xfa, 0xfd, 0xfe, 0x10, 0x1c, 0x07, 0x02, 0x29, 0x14,
  0x03, 0xf0, 0x22, 0xe5, 0xf5, 0xfa, 0xe9, 0x1b, 0xeb, 0x03, 0xe6, 0xf4,
  0x04, 0x06, 0xd6, 0xfd, 0xe8, 0xf1, 0xed, 0x1c, 0xf9, 0x08, 0x0c, 0xed,
  0xf2, 0xfa, 0xff, 0xfe, 0xfc, 0x13, 0x02, 0xe9, 0xea, 0x11, 0x15, 0x0c,
  0x03, 0xf2, 0x14, 0xf7, 0xf3, 0xeb, 0xfc, 0x24, 0x03, 0xfb, 0xfc, 0xfe,
  0x0d, 0xe7, 0x23, 0xdf, 0x08, 0xeb, 0xfe, 0x0b, 0xf9, 0xf1, 0xe0, 0x0c,
  0xe7, 0x04, 0x07, 0x06, 0xee, 0x09, 0xeb, 0xcc, 0xed, 0x15, 0x0b, 0x08,
  0x1d, 0x16, 0xf4, 0xe5, 0x08, 0xf1, 0xe7, 0xee, 0xf1, 0x23, 0xfc, 0x00,
  0xea, 0xf6, 0xea, 0x2a, 0xe2, 0x0f, 0x18, 0xf5, 0xf1, 0xfd, 0xff, 0xfc,
  0xed, 0x16, 0xd8, 0x06, 0x0f, 0xfb, 0x10, 0x0a, 0xdc, 0x04, 0x05, 0xeb,
  0x0b, 0xf8, 0xf0, 0x23, 0xf9, 0x1d, 0xf8, 0xdd, 0x22, 0xeb, 0xe3, 0x20,
  0xff, 0x13, 0xf6, 0xeb, 0xf9, 0x10, 0x13, 0xf0, 0xef, 0x11, 0x17, 0xef,
  0xfe, 0x03, 0xde, 0xf6, 0x08, 0x28, 0xe7, 0x27, 0xf1, 0xef, 0xf8, 0x11,
  0xfc, 0xf0, 0x0d, 0xfd, 0xfd, 0x00, 0xf7, 0xf4, 0xf0, 0x0e, 0xda, 0xec,
  0x08, 0xf2, 0xf4, 0x0c, 0xf3, 0x0d, 0xf5, 0xeb, 0xf3, 0x06, 0xe9, 0x03,
  0x03, 0x17, 0xf6, 0x27, 0xe9, 0xe9, 0xdf, 0x0e, 0x08, 0x0e, 0xdc, 0xdb,
  0x0a, 0x04, 0x19, 0x0d, 0xfa, 0x1f, 0xe3, 0xf1, 0x1c, 0x03, 0x0b, 0x1a,
  0x02, 0xe0, 0x24, 0xfb, 0xe7, 0x29, 0xdc, 0x06, 0xfe, 0xe6, 0xed, 0x3f,
  0x2c, 0x12, 0xf0, 0x1f, 0xff, 0xea, 0xf4, 0xfd, 0x1e, 0xfe, 0xf6, 0x0e,
  0xe2, 0xfb, 0xf2, 0x1b, 0x1a, 0x1d, 0xff, 0x15, 0x13, 0x07, 0x00, 0x01,
  0x16, 0xfb, 0xfa, 0x0b, 0xf3, 0xe0, 0xf6, 0x16, 0xea, 0x15, 0xed, 0x01,
  0x11, 0x09, 0x03, 0x20, 0xf4, 0xfa, 0xe3, 0xe8, 0xf8, 0x1e, 0x06, 0xfa,
  0xee, 0xec, 0x13, 0x14, 0x1b, 0x02, 0xe2, 0x1b, 0xf2, 0xea, 0x18, 0x23,
  0xf8, 0x18, 0xe4, 0x07, 0x08, 0xe9, 0x02, 0x1b, 0xfb, 0xfa, 0xf7, 0xf0,
  0x04, 0xf0, 0x07, 0x16, 0x17, 0x2d, 0x13, 0xe3, 0xe1, 0x14, 0xf7, 0x06,
  0x05, 0x31, 0xec, 0xf7, 0x0d, 0x10, 0x08, 0x12, 0x01, 0xfc, 0xeb, 0x05,
  0xe7, 0x10, 0xdd, 0xea, 0xfd, 0xe9, 0x11, 0x0b, 0x1c, 0x04, 0x05, 0x0a,
  0x14, 0xec, 0x0f, 0xee, 0x0a, 0x13, 0x0f, 0xf7, 0x09, 0xf5, 0x26, 0x00,
  0xf8, 0x09, 0x05, 0x07, 0xfc, 0xe6, 0x13, 0xf2, 0x16, 0xf6, 0x05, 0xfc,
  0x12, 0xfa, 0x11, 0xe3, 0x19, 0x08, 0xd6, 0xee, 0xf5, 0xfd, 0x0f, 0x01,
  0x09, 0xf9, 0x20, 0xfe, 0xf6, 0xd7, 0xe9, 0xe2, 0xf4, 0x1b, 0xe2, 0xf1,
  0xfc, 0x04, 0xf5, 0x3e, 0x20, 0xfb, 0x0c, 0xef, 0x0e, 0xe0, 0x12, 0x07,
  0x20, 0x06, 0x13, 0xfe, 0x16, 0xfc, 0xfd, 0x15, 0x3d, 0x0f, 0x15, 0xf4,
  0xf0, 0xfb, 0xfc, 0xf9, 0x0a, 0x11, 0x08, 0x10, 0x07, 0x0d, 0x09, 0x01,
  0xec, 0x19, 0x0b, 0x24, 0x03, 0xf5, 0xf8, 0x15, 0x02, 0x03, 0xf3, 0xe2,
  0x12, 0xeb, 0xe4, 0x05, 0x0e, 0x03, 0x09, 0xf6, 0x12, 0xff, 0xf5, 0x0a,
  0xff, 0xf7, 0x01, 0x09, 0xef, 0xdd, 0xf2, 0x0a, 0x15, 0xf3, 0x03, 0xe2,
  0x1c, 0x16, 0x12, 0xf8, 0x0d, 0x02, 0x10, 0x08, 0x17, 0xed, 0x1e, 0x02,
  0xff, 0xf1, 0xd0, 0x15, 0xff, 0x07, 0xd8, 0xf7, 0x22, 0x26, 0xf0, 0x25,
  0xe8, 0x01, 0xfd, 0xe4, 0xf2, 0x20, 0x05, 0xe0, 0x0b, 0xf4, 0xfb, 0x02,
  0x08, 0x0b, 0xf6, 0xfb, 0xe3, 0xda, 0x11, 0x05, 0xe4, 0x07, 0xf5, 0x16,
  0xf8, 0x20, 0xf0, 0x2f, 0x1f, 0x05, 0x04, 0x27, 0xea, 0xcc, 0xe0, 0x20,
  0x01, 0x00, 0x01, 0x19, 0xf6, 0x1a, 0x28, 0xf5, 0x0e, 0xfd, 0x0c, 0xef,
  0xee, 0x13, 0x12, 0x03, 0xf6, 0x02, 0x20, 0xfc, 0xfc, 0xeb, 0x0e, 0x19,
  0xf5, 0x37, 0xe5, 0xdb, 0x18, 0xe4, 0x04, 0x2f, 0x1e, 0x08, 0xeb, 0x0e,
  0xf2, 0xdd, 0xe4, 0x1c, 0x30, 0x07, 0x1a, 0x01, 0xdb, 0xd9, 0x02, 0x1e,
  0x46, 0x2c, 0x0e, 0x22, 0xf5, 0xdf, 0xea, 0xd8, 0x19, 0x24, 0xf9, 0x03,
  0x04, 0xce, 0xe3, 0x13, 0xf8, 0x09, 0x03, 0x0b, 0x04, 0xe3, 0x0b, 0x1e,
  0xfa, 0x09, 0xf1, 0x07, 0x0a, 0xde, 0xe2, 0x39, 0x12, 0x03, 0x28, 0x08,
  0x34, 0xfc, 0x17, 0x05, 0x11, 0x01, 0x06, 0x05, 0xfa, 0x01, 0xfe, 0xf0,
  0x12, 0xee, 0x17, 0xf6, 0xef, 0x15, 0xe6, 0xe4, 0x15, 0xea, 0x1f, 0x23,
  0x04, 0xff, 0x13, 0xfd, 0xdc, 0xe4, 0x05, 0xfa, 0x1a, 0xe0, 0x06, 0xf9,
  0x11, 0x28, 0x0f, 0xfb, 0x10, 0xf9, 0x07, 0xf7, 0x04, 0x14, 0xef, 0xe6,
  0x0a, 0x1f, 0x04, 0x1b, 0x03, 0x02, 0xfc, 0x1e, 0xda, 0xe5, 0xff, 0x11,
  0xed, 0x19, 0x17, 0x09, 0xf7, 0xc9, 0xdc, 0x0a, 0x07, 0x0d, 0xf9, 0x1b,
  0xf4, 0xe7, 0x17, 0x18, 0x05, 0xff, 0x06, 0x2f, 0xee, 0xef, 0x05, 0xf8,
  0x08, 0xf5, 0xfc, 0x1e, 0xf4, 0xea, 0x08, 0xfb, 0x11, 0xf7, 0x17, 0x0d,
  0x04, 0xbc, 0x1a, 0x0c, 0xf9, 0x5d, 0xde, 0xf2, 0xe5, 0xe2, 0xfd, 0x3a,
  0x23, 0x0b, 0x24, 0x11, 0xff, 0xd5, 0x2c, 0x20, 0x27, 0x19, 0x30, 0xf1,
  0xd6, 0xdc, 0x11, 0xff, 0x4a, 0x1e, 0x17, 0x08, 0xd4, 0xea, 0x15, 0xf0,
  0x11, 0x06, 0x05, 0x2f, 0x07, 0xd5, 0xe4, 0x25, 0xf5, 0xfe, 0xe1, 0x13,
  0xdc, 0xd3, 0xf3, 0x19, 0xfd, 0x09, 0x02, 0x19, 0xf7, 0xdd, 0xf5, 0x26,
  0x03, 0x11, 0xfe, 0x27, 0x08, 0x0a, 0xea, 0x39, 0xfc, 0xe5, 0x05, 0x24,
  0x02, 0xdf, 0x1a, 0xf8, 0xed, 0xed, 0x16, 0x10, 0xdd, 0xd6, 0xed, 0xe0,
  0x26, 0xfe, 0x16, 0xf5, 0x01, 0x0b, 0xf4, 0xed, 0xfe, 0x10, 0xdb, 0x0c,
  0xf7, 0xe6, 0xfd, 0xec, 0xf6, 0x11, 0xf4, 0x1e, 0xe9, 0xe0, 0xe8, 0xf7,
  0xf2, 0x1b, 0xd5, 0x0d, 0x08, 0xfb, 0x00, 0x06, 0x14, 0x06, 0x0e, 0x25,
  0x02, 0xee, 0x03, 0x26, 0x06, 0xfa, 0xd8, 0x1d, 0xd9, 0xd0, 0xf8, 0x22,
  0xf7, 0x01, 0xff, 0x10, 0xf5, 0xf6, 0x0c, 0x16, 0x06, 0xe9, 0xf0, 0xeb,
  0xe5, 0xf9, 0xe5, 0x0d, 0x01, 0xfc, 0xed, 0xe2, 0xfd, 0xe9, 0xe9, 0x0c,
  0x09, 0xff, 0x1b, 0x12, 0xf8, 0xc0, 0xf7, 0x0c, 0xd0, 0x4c, 0xd7, 0xfe,
  0xe6, 0xd3, 0xd4, 0x3b, 0x07, 0x11, 0x14, 0x21, 0xc7, 0xcd, 0x12, 0x24,
  0x2f, 0x0e, 0x38, 0xfe, 0xc7, 0xd4, 0x04, 0x01, 0x24, 0x20, 0x03, 0xf5,
  0xc7, 0xfc, 0x10, 0xe5, 0x0d, 0x1c, 0xe5, 0x04, 0xf8, 0xb7, 0xe2, 0x0d,
  0xe1, 0x29, 0xfc, 0x05, 0xdd, 0xc5, 0x0d, 0x0d, 0xff, 0xfb, 0x12, 0x1e,
  0xe2, 0xef, 0x03, 0x38, 0xfe, 0x07, 0xf2, 0x0c, 0xea, 0xe2, 0xf3, 0x2b,
  0xf3, 0xff, 0x21, 0x20, 0x20, 0xff, 0xdc, 0x14, 0x02, 0xe2, 0x07, 0x0a,
  0xe8, 0xfb, 0xee, 0xc1, 0x0e, 0x15, 0xe9, 0x1c, 0x01, 0xfe, 0xfd, 0xd5,
  0x10, 0x0c, 0xf2, 0x20, 0xe3, 0xdf, 0x06, 0xf4, 0xdf, 0x13, 0x0d, 0x35,
  0xf1, 0xd3, 0x10, 0xf7, 0xdf, 0x18, 0x0d, 0x01, 0x1a, 0xe2, 0x0b, 0x11,
  0x12, 0x0f, 0xf6, 0xfc, 0xf4, 0x02, 0xf3, 0x14, 0xe3, 0x23, 0xd5, 0xee,
  0x27, 0xd9, 0x0e, 0x31, 0xfc, 0x10, 0x01, 0x01, 0x06, 0xdf, 0xf1, 0x29,
  0x29, 0x0b, 0xf8, 0x0a, 0xee, 0xf1, 0xf4, 0xfc, 0x28, 0xf7, 0x15, 0xec,
  0xf1, 0xfc, 0xff, 0xeb, 0x0e, 0xfe, 0xf1, 0x03, 0xf8, 0xa6, 0x09, 0x00,
  0xde, 0x44, 0xc3, 0xe9, 0xe0, 0xca, 0xfb, 0x4d, 0x15, 0x0b, 0xf2, 0x01,
  0xdd, 0xdd, 0xfa, 0x30, 0x19, 0x07, 0x18, 0x0c, 0xdf, 0xb7, 0xfd, 0x0b,
  0x36, 0x01, 0x02, 0x0b, 0xf2, 0xf6, 0xf1, 0xfc, 0x00, 0x2a, 0x02, 0x20,
  0x29, 0xbe, 0x11, 0x0c, 0xe4, 0x20, 0xf2, 0x00, 0xa2, 0xda, 0x1d, 0x0d,
  0x09, 0xf4, 0x07, 0x08, 0xda, 0xf1, 0x0f, 0x59, 0x15, 0x1c, 0x22, 0x20,
  0x26, 0xf3, 0xee, 0x38, 0x19, 0xd9, 0x1d, 0xec, 0x14, 0xd3, 0x05, 0x23,
  0x05, 0x11, 0x19, 0xf7, 0xe5, 0xd4, 0x00, 0xf1, 0x33, 0xfa, 0xf8, 0xff,
  0xf4, 0xfa, 0xee, 0xdb, 0xed, 0x1f, 0xe9, 0x1d, 0x19, 0xc9, 0x1b, 0xfc,
  0xf2, 0x0f, 0xec, 0x08, 0xe6, 0xd2, 0x0f, 0x02, 0xf8, 0x2b, 0xef, 0xf2,
  0x16, 0xda, 0x1c, 0xfe, 0x1a, 0x1f, 0x05, 0x0f, 0x13, 0xe6, 0x0c, 0x21,
  0x08, 0x12, 0xe0, 0xe9, 0x09, 0xd9, 0xf2, 0x33, 0x07, 0x2c, 0xdf, 0x04,
  0xfd, 0xe7, 0x07, 0x1b, 0x32, 0xf3, 0xf8, 0x02, 0xf1, 0xe3, 0x20, 0xff,
  0x0d, 0x0f, 0x13, 0xdf, 0xee, 0xde, 0xe3, 0x09, 0x0c, 0x12, 0x0f, 0x04,
  0xff, 0xb6, 0xe5, 0x1e, 0xe4, 0x42, 0xb8, 0xce, 0xc8, 0xc6, 0xe2, 0x42,
  0x05, 0x0a, 0xe5, 0xe4, 0xcc, 0x96, 0x0b, 0x3b, 0x3e, 0x08, 0x49, 0xed,
  0xe1, 0xab, 0x17, 0x19, 0x31, 0x18, 0x3c, 0xed, 0xe5, 0xcc, 0xf1, 0xf3,
  0x13, 0x25, 0xdd, 0x00, 0x05, 0xe1, 0xf4, 0x00, 0xf6, 0x1b, 0xea, 0x1f,
  0xc5, 0xdc, 0xfb, 0x0f, 0x24, 0x1a, 0xdf, 0x14, 0xdb, 0xea, 0xef, 0x40,
  0x15, 0x09, 0x1a, 0x06, 0x10, 0xe8, 0xd8, 0x2a, 0x23, 0xfe, 0x13, 0xfc,
  0xfb, 0xd7, 0xdc, 0x2b, 0x17, 0xfb, 0x07, 0xe0, 0xee, 0xe0, 0x15, 0xf9,
  0x19, 0xe6, 0xed, 0xfa, 0x01, 0xf7, 0x0f, 0xf9, 0xf6, 0xfe, 0xe2, 0x1d,
  0xec, 0xcb, 0x0f, 0x10, 0xe7, 0x03, 0xee, 0x1c, 0xdc, 0xe2, 0xf5, 0x0b,
  0xf8, 0xfe, 0xf3, 0x1c, 0xfd, 0xfb, 0x0c, 0x18, 0x16, 0xfc, 0xf5, 0x17,
  0xf2, 0x0a, 0xdd, 0x21, 0xdf, 0x18, 0xff, 0x1d, 0x1b, 0xd1, 0x0f, 0x15,
  0xfc, 0x20, 0x10, 0x2a, 0x11, 0xea, 0x2a, 0x15, 0x26, 0x1b, 0xeb, 0x0c,
  0xe0, 0xcf, 0xed, 0xf0, 0x22, 0x10, 0xf2, 0xe8, 0x08, 0x07, 0x12, 0xf2,
  0x17, 0xe0, 0x10, 0xfe, 0xf6, 0xaa, 0xe4, 0xec, 0xd7, 0x12, 0xb2, 0xde,
  0xb4, 0xc4, 0xf8, 0x52, 0x28, 0x05, 0xfd, 0xfb, 0xe2, 0xb3, 0x0d, 0x19,
  0x4c, 0x0d, 0x36, 0x1b, 0xd1, 0xa7, 0x1d, 0xf9, 0x3f, 0x20, 0x17, 0x1b,
  0xef, 0xcb, 0x04, 0xf0, 0x0e, 0x17, 0xeb, 0x31, 0xd8, 0xe0, 0x05, 0xf4,
  0xdd, 0x10, 0xd7, 0x16, 0xe3, 0xfb, 0xe0, 0x29, 0x02, 0xf6, 0xe4, 0x0a,
  0x01, 0xfb, 0xec, 0x3a, 0x1c, 0x0a, 0x09, 0x15, 0x21, 0xfd, 0xd6, 0x60,
  0x01, 0xe8, 0xfe, 0x0b, 0x04, 0xe9, 0x01, 0xf6, 0x14, 0xf9, 0x1d, 0xe7,
  0x27, 0xe1, 0x05, 0xf7, 0x3a, 0xf1, 0x10, 0x25, 0x1c, 0xf0, 0xf9, 0xf6,
  0xf4, 0x05, 0xde, 0xea, 0x0c, 0xda, 0x0c, 0xf3, 0xd0, 0x0c, 0xda, 0x26,
  0xfc, 0xdc, 0x2a, 0xee, 0x06, 0x07, 0xf7, 0xfe, 0x2d, 0xc9, 0x18, 0x10,
  0x11, 0x20, 0x03, 0x24, 0x13, 0xf3, 0xe2, 0x26, 0xfc, 0x35, 0x16, 0xf1,
  0xfc, 0xdf, 0x0e, 0x22, 0x07, 0x1b, 0xe7, 0xfb, 0xe5, 0xec, 0xec, 0x17,
  0x23, 0x06, 0xe1, 0x23, 0xe5, 0xf0, 0xd5, 0x1f, 0xe1, 0xfe, 0x21, 0x0c,
  0xef, 0xf8, 0xfd, 0x00, 0x22, 0xd7, 0x11, 0xff, 0x05, 0xb1, 0x27, 0xfd,
  0xd6, 0x27, 0x9c, 0x06, 0xce, 0xce, 0x0b, 0x3e, 0x16, 0x21, 0x03, 0x1f,
  0xea, 0x94, 0xe6, 0x20, 0x41, 0xfb, 0x47, 0x10, 0xe4, 0xa0, 0xef, 0x16,
  0x5c, 0x18, 0x2c, 0x12, 0xe1, 0xc9, 0xdd, 0xf0, 0x12, 0x06, 0x01, 0x11,
  0x12, 0xcb, 0xf2, 0x0f, 0xf3, 0x08, 0xe1, 0x03, 0xe6, 0xd3, 0xf6, 0x0c,
  0xf2, 0x06, 0xf9, 0x37, 0xfe, 0xef, 0xe0, 0x28, 0x03, 0xfd, 0x08, 0x06,
  0x04, 0xe6, 0xe4, 0x62, 0x1e, 0xf8, 0x14, 0xdb, 0x0e, 0xde, 0x02, 0x0a,
  0x0b, 0x01, 0x34, 0x07, 0x10, 0xf5, 0xf3, 0xfe, 0x24, 0xf5, 0xe8, 0x11,
  0x30, 0xec, 0x0a, 0xfe, 0x12, 0x07, 0xed, 0x02, 0xf6, 0xbd, 0xfc, 0xf4,
  0xe7, 0x14, 0xe3, 0xfb, 0x0b, 0xe2, 0x0e, 0xf3, 0xeb, 0x22, 0xf2, 0x15,
  0x1e, 0xfb, 0x00, 0xfc, 0x03, 0x04, 0xeb, 0x11, 0x13, 0xfb, 0xde, 0x19,
  0x08, 0x16, 0xef, 0xfe, 0x03, 0xed, 0x04, 0x17, 0x1f, 0x3d, 0xf2, 0x03,
  0xf2, 0xfc, 0xfb, 0x29, 0xef, 0x06, 0x03, 0xfb, 0xec, 0xeb, 0x12, 0x20,
  0xf5, 0xeb, 0x0c, 0x0d, 0xfe, 0xf8, 0x06, 0x06, 0x14, 0xfc, 0xf9, 0xf1,
  0x07, 0xc5, 0xf9, 0xfb, 0xc8, 0x26, 0xc8, 0x0d, 0xbe, 0xc8, 0xf0, 0x2e,
  0x23, 0xfd, 0xef, 0x10, 0xee, 0xab, 0xe1, 0x1b, 0x1f, 0xfa, 0x46, 0xff,
  0x07, 0x8b, 0xee, 0x1a, 0x59, 0x18, 0x46, 0x14, 0xdc, 0xc5, 0xfb, 0xe3,
  0x03, 0x08, 0x09, 0x29, 0xff, 0xb9, 0xef, 0xf0, 0xed, 0xea, 0xfb, 0x0d,
  0xd2, 0xd7, 0xd2, 0xf2, 0x19, 0xec, 0xed, 0x2b, 0xd5, 0xf6, 0xd7, 0x4e,
  0x0e, 0xf3, 0x13, 0x03, 0x09, 0xfd, 0xe6, 0x48, 0x28, 0xe6, 0x0a, 0x00,
  0xf2, 0xc9, 0xed, 0x28, 0x23, 0xe1, 0x1e, 0xf4, 0x00, 0xdb, 0xf8, 0xfe,
  0x25, 0xd9, 0xfd, 0x19, 0x32, 0xdd, 0x1f, 0x07, 0x0c, 0xf0, 0xf4, 0x06,
  0xf3, 0xd5, 0x10, 0x01, 0xfc, 0x13, 0x08, 0x04, 0xf3, 0xe6, 0xf7, 0xf9,
  0x0e, 0x2b, 0x0f, 0x05, 0x16, 0xde, 0xf2, 0xec, 0x0f, 0x26, 0xde, 0x13,
  0x15, 0xe2, 0x1a, 0x25, 0xdd, 0x33, 0xdd, 0x0a, 0xe7, 0xdf, 0xe7, 0x02,
  0x11, 0x23, 0x06, 0x0c, 0xdd, 0xf7, 0x08, 0x15, 0x23, 0xf8, 0xfd, 0x1a,
  0xe2, 0xf1, 0xde, 0x08, 0xff, 0xf3, 0x0c, 0x1b, 0xfd, 0xee, 0xf5, 0x19,
  0x05, 0x1f, 0xf6, 0xe9, 0x18, 0xc6, 0x12, 0xf9, 0xc9, 0x2e, 0x9f, 0xdf,
  0xbe, 0xe3, 0xf7, 0x28, 0x22, 0x26, 0x28, 0x1e, 0xed, 0xb4, 0xe9, 0x1c,
  0x26, 0x31, 0x2d, 0x07, 0xe3, 0x9e, 0x01, 0x1f, 0x4e, 0x1b, 0x2f, 0x23,
  0xd4, 0xe2, 0x08, 0xfa, 0x25, 0x2e, 0xee, 0x06, 0xf4, 0xba, 0x29, 0x0b,
  0x02, 0x0a, 0xe2, 0x07, 0xdb, 0xe1, 0xf2, 0x2d, 0x10, 0xf4, 0xed, 0x11,
  0x0f, 0xfe, 0x09, 0x36, 0xff, 0x00, 0x07, 0x0b, 0x06, 0xec, 0xee, 0x41,
  0x14, 0xe2, 0x0e, 0xfe, 0x15, 0xc6, 0xe5, 0x05, 0x2d, 0xfd, 0x0b, 0xe8,
  0x0b, 0xf3, 0xe7, 0x10, 0x23, 0xfe, 0xee, 0xfd, 0x0d, 0xe6, 0x09, 0xfc,
  0xf0, 0x0e, 0xef, 0x0e, 0xf6, 0xc9, 0xf8, 0xf1, 0xe9, 0x0f, 0xfd, 0x0c,
  0xea, 0xf3, 0xf1, 0x07, 0xfc, 0x25, 0x12, 0x0f, 0x20, 0xfd, 0xdb, 0x18,
  0x1c, 0x1b, 0xde, 0x08, 0x38, 0xff, 0xfd, 0x17, 0x01, 0x09, 0xf4, 0xf0,
  0x0e, 0x03, 0xe7, 0x0f, 0x18, 0x33, 0x08, 0xff, 0xf3, 0xeb, 0xe9, 0x24,
  0x10, 0xe7, 0xfd, 0xfd, 0xf9, 0xed, 0xf4, 0xfb, 0x30, 0x06, 0x12, 0xfb,
  0x01, 0xed, 0xe8, 0x0d, 0x1c, 0xfc, 0xe5, 0xf2, 0x00, 0xc2, 0xf3, 0xea,
  0xc3, 0x17, 0xb2, 0xf9, 0xe7, 0xcd, 0x14, 0x45, 0x28, 0x37, 0xff, 0x24,
  0xd6, 0xbd, 0x1f, 0x26, 0x40, 0x20, 0x2f, 0x10, 0xe9, 0xa7, 0x13, 0x19,
  0x5c, 0x22, 0x42, 0x33, 0xee, 0xd8, 0xea, 0x00, 0x09, 0x0f, 0xf4, 0x3d,
  0xfc, 0xa5, 0x12, 0x20, 0xe6, 0xf1, 0xe6, 0x10, 0xed, 0xee, 0xda, 0x1e,
  0x09, 0x02, 0xf2, 0x1a, 0x0a, 0x00, 0xe6, 0x39, 0x1b, 0x02, 0x1f, 0xfd,
  0x29, 0x06, 0xd7, 0x18, 0x2e, 0x02, 0x10, 0x19, 0x1b, 0xf8, 0xfc, 0x17,
  0x34, 0xf1, 0x13, 0x18, 0xec, 0xe5, 0xec, 0x0a, 0x21, 0x0f, 0xe8, 0x01,
  0x36, 0xdc, 0x0d, 0xdc, 0xf3, 0x1b, 0xfe, 0xfa, 0x0a, 0xee, 0x1d, 0xf1,
  0xff, 0xfc, 0x0b, 0x0c, 0x11, 0xe2, 0x09, 0x11, 0xf9, 0x13, 0xf4, 0x03,
  0x2d, 0xd9, 0x0b, 0x09, 0xfa, 0x1f, 0xee, 0xff, 0x2d, 0xe8, 0xdd, 0x14,
  0xf0, 0x0d, 0xee, 0x0f, 0x13, 0xdf, 0xfa, 0x1d, 0x1b, 0x3c, 0xe4, 0x19,
  0xf5, 0xfa, 0x12, 0x09, 0x01, 0xf2, 0xf0, 0xe2, 0x1d, 0xf7, 0xe8, 0x0f,
  0x18, 0xe3, 0xf1, 0xf6, 0xfe, 0x06, 0x07, 0x17, 0x06, 0x0a, 0xf0, 0x06,
  0xff, 0xad, 0xe1, 0xee, 0xa9, 0x1c, 0xd7, 0xd8, 0xe7, 0xf0, 0xf3, 0x18,
  0x21, 0x21, 0x11, 0x3c, 0xf1, 0xa4, 0xef, 0x20, 0x28, 0x0f, 0x2f, 0x43,
  0xee, 0x9b, 0xea, 0x04, 0x5d, 0x09, 0x51, 0x1a, 0xcf, 0xd3, 0xe9, 0x05,
  0x1b, 0x0a, 0xd4, 0x19, 0xdb, 0xaf, 0xef, 0x0e, 0xfc, 0x13, 0x11, 0x07,
  0xe1, 0xdc, 0xe1, 0x30, 0x02, 0x01, 0x0d, 0x44, 0x14, 0xf4, 0xe2, 0x25,
  0xf4, 0x03, 0x0f, 0x14, 0x25, 0xfb, 0xeb, 0x41, 0x1b, 0xf3, 0x0c, 0x21,
  0x1f, 0xf3, 0xcc, 0x16, 0x09, 0xff, 0x07, 0x01, 0xec, 0xf9, 0x01, 0x13,
  0x1d, 0xef, 0x07, 0x25, 0x09, 0xd8, 0x00, 0xe7, 0xee, 0x0a, 0xfc, 0x29,
  0x11, 0xe9, 0xff, 0xfe, 0xfd, 0x0a, 0xe8, 0x08, 0x0c, 0xe4, 0xfd, 0x03,
  0x18, 0x27, 0x1b, 0x03, 0x1b, 0xe3, 0xe6, 0xff, 0x05, 0x03, 0x07, 0x1d,
  0x0e, 0xe3, 0xf7, 0x09, 0xec, 0x22, 0xf9, 0xf5, 0xf3, 0xee, 0x0c, 0x24,
  0x0a, 0x04, 0x0d, 0xf2, 0xf8, 0x0a, 0x08, 0xfc, 0xe6, 0x0d, 0x13, 0xf1,
  0x0a, 0xfa, 0xfc, 0x0e, 0x27, 0xf2, 0xdf, 0xeb, 0xfe, 0x05, 0xde, 0xf2,
  0x17, 0xde, 0xf3, 0xff, 0xd7, 0xd8, 0x03, 0xfd, 0xb1, 0x04, 0xc7, 0x12,
  0xe5, 0xd2, 0xef, 0x24, 0x10, 0x16, 0xf3, 0x32, 0xf7, 0xe2, 0x02, 0x36,
  0x19, 0x18, 0x29, 0x14, 0xf5, 0xbf, 0xf0, 0x20, 0x3a, 0x11, 0x52, 0x41,
  0xde, 0xd1, 0xf4, 0x16, 0x10, 0x12, 0x06, 0x29, 0xea, 0xb8, 0x10, 0x09,
  0xff, 0x00, 0xfd, 0x1b, 0xe0, 0xeb, 0x13, 0x24, 0x08, 0x04, 0xf2, 0x2b,
  0xf2, 0x16, 0x10, 0x32, 0x0c, 0x0e, 0xf9, 0x1a, 0x56, 0x06, 0xd2, 0x36,
  0x19, 0xfc, 0x00, 0x12, 0x03, 0xde, 0xd4, 0x06, 0x15, 0xd6, 0x0b, 0x15,
  0x2e, 0xec, 0xf0, 0xfd, 0x1f, 0x02, 0xfe, 0x14, 0x1b, 0xec, 0x10, 0x0c,
  0xf6, 0x21, 0xed, 0x13, 0x0a, 0xf1, 0xf5, 0xf6, 0x08, 0xfb, 0xff, 0xfc,
  0x2a, 0xfc, 0xda, 0xf6, 0x0f, 0x18, 0x0c, 0x15, 0x0b, 0xfa, 0xe4, 0xe5,
  0xee, 0x04, 0xe7, 0x12, 0xfe, 0xf0, 0x11, 0x01, 0xf7, 0xfb, 0xed, 0x16,
  0xde, 0xf2, 0xe6, 0x1a, 0xfa, 0x2d, 0xef, 0x26, 0x02, 0xf5, 0x17, 0x16,
  0x00, 0xe8, 0x0d, 0xfb, 0x06, 0xfc, 0xe3, 0xf2, 0xf7, 0xf2, 0x11, 0xfd,
  0x05, 0xfb, 0x08, 0x10, 0x13, 0xe1, 0xe8, 0xec, 0x0b, 0xc1, 0x0e, 0xec,
  0xd8, 0x04, 0xb9, 0x04, 0xf8, 0xf1, 0xe6, 0x2d, 0x17, 0x27, 0x06, 0x41,
  0xd9, 0xc1, 0xff, 0x03, 0x3e, 0x2a, 0x1c, 0x1b, 0xe8, 0xcb, 0xf6, 0x1d,
  0x3c, 0x3f, 0x41, 0x3b, 0xc5, 0xc4, 0xf3, 0x0c, 0x08, 0x17, 0xe5, 0x1b,
  0xe1, 0xd4, 0xfe, 0x02, 0x0f, 0x1e, 0xe1, 0x26, 0xd5, 0xef, 0xfc, 0x09,
  0x13, 0xda, 0x01, 0x29, 0x0f, 0xf9, 0xed, 0x25, 0x05, 0x11, 0x08, 0x2c,
  0x2a, 0xf2, 0xe5, 0x24, 0x1d, 0x08, 0x32, 0x16, 0x13, 0xf8, 0x0a, 0x25,
  0x1b, 0xe0, 0x1d, 0x1a, 0x37, 0xe8, 0xea, 0xf3, 0x2b, 0x06, 0x14, 0x0c,
  0x44, 0xd2, 0xeb, 0x09, 0xf0, 0xf4, 0xff, 0x07, 0x2e, 0xed, 0xfd, 0x02,
  0x03, 0xe7, 0x13, 0x09, 0x1e, 0x07, 0x1e, 0xfc, 0xde, 0x08, 0xf7, 0x0f,
  0x21, 0xfb, 0xee, 0x01, 0x11, 0xfe, 0x07, 0x21, 0x0d, 0xef, 0x2b, 0x0b,
  0xec, 0x22, 0xd6, 0x19, 0x1a, 0x06, 0x21, 0x1d, 0x08, 0x1d, 0xdf, 0x3b,
  0xf1, 0xf9, 0xfe, 0x06, 0x19, 0xff, 0x06, 0xdf, 0xf7, 0x0b, 0xee, 0x09,
  0x01, 0xfc, 0x01, 0xff, 0xf3, 0x07, 0xf9, 0xf8, 0xfc, 0x0d, 0xc6, 0x0b,
  0xdf, 0xd7, 0x04, 0x15, 0xee, 0x02, 0xad, 0xe9, 0xe3, 0xdf, 0xff, 0x30,
  0x22, 0x27, 0xf8, 0x39, 0xf1, 0xc5, 0xef, 0x26, 0x40, 0x21, 0x23, 0x18,
  0xe5, 0xc9, 0x0e, 0x34, 0x2b, 0x2e, 0x2b, 0x45, 0xda, 0xa9, 0x1e, 0x06,
  0x2e, 0x09, 0x07, 0x23, 0xd6, 0xb6, 0x17, 0x1b, 0x01, 0x04, 0x03, 0x2c,
  0xf1, 0xed, 0xf8, 0x02, 0x23, 0x1f, 0xe1, 0x1f, 0x1a, 0x10, 0xd1, 0x3e,
  0x08, 0x0f, 0x09, 0x13, 0x06, 0xcd, 0x00, 0x4e, 0xff, 0xf3, 0x13, 0x1a,
  0x32, 0xf3, 0xbe, 0x25, 0x0e, 0xdd, 0x03, 0x19, 0x34, 0xf1, 0x1b, 0xf0,
  0x0e, 0xfb, 0xe2, 0x16, 0x32, 0xf7, 0xf7, 0xff, 0xf8, 0xf5, 0xf2, 0x09,
  0x27, 0x03, 0xf6, 0x14, 0x0d, 0xff, 0xfb, 0x2b, 0x09, 0x0e, 0xdf, 0xef,
  0xfa, 0x22, 0xf1, 0x16, 0x35, 0x00, 0x09, 0xfc, 0x09, 0x14, 0xeb, 0x15,
  0x32, 0xd7, 0x21, 0xf1, 0xd2, 0x12, 0xfa, 0x12, 0x0c, 0xf3, 0x04, 0x0d,
  0xfb, 0x08, 0x16, 0x29, 0x02, 0xfb, 0x12, 0x07, 0x0a, 0x00, 0xf3, 0xf8,
  0xfe, 0xfe, 0xdd, 0x0b, 0x0a, 0xfd, 0x01, 0xde, 0x13, 0x0f, 0x04, 0x0b,
  0xfa, 0x19, 0xd4, 0xee, 0x13, 0xc2, 0x19, 0x14, 0xf3, 0x1f, 0xc9, 0x05,
  0xdd, 0xf7, 0xfe, 0x22, 0xff, 0x11, 0x03, 0x3c, 0xfd, 0xb3, 0xef, 0x22,
  0x22, 0x09, 0xf8, 0x25, 0xfc, 0xd7, 0x0e, 0x11, 0x30, 0x22, 0x26, 0x35,
  0xde, 0xc1, 0x13, 0x0c, 0x1e, 0x1d, 0x18, 0x21, 0xdd, 0xcb, 0xda, 0x23,
  0x0e, 0xf9, 0x18, 0x1d, 0xfb, 0xe3, 0x09, 0x29, 0x12, 0x02, 0x03, 0x14,
  0x07, 0xec, 0xc4, 0x3f, 0x0e, 0xf1, 0xf3, 0x2e, 0x2e, 0xde, 0xcf, 0x37,
  0x09, 0xf9, 0x1d, 0x1d, 0x2f, 0xee, 0xf8, 0x18, 0x1b, 0xf9, 0x0a, 0x33,
  0x31, 0xf0, 0xd4, 0xf8, 0x0e, 0x1a, 0x11, 0x10, 0x3e, 0xf0, 0xf2, 0x27,
  0xd9, 0xfd, 0x0d, 0xf2, 0x17, 0xeb, 0xf8, 0xf7, 0xe5, 0x23, 0x00, 0x04,
  0x0d, 0xf0, 0x0a, 0xee, 0xf6, 0x07, 0x00, 0x23, 0x1a, 0x0c, 0x06, 0x07,
  0xfd, 0x08, 0x03, 0x16, 0x0c, 0xe7, 0x04, 0x1a, 0xf5, 0xfd, 0xfd, 0x11,
  0x06, 0xf2, 0xf9, 0x08, 0x0b, 0xfc, 0x0b, 0x21, 0x16, 0xe8, 0x11, 0x0e,
  0x1c, 0x14, 0x08, 0x0e, 0x19, 0xf6, 0xff, 0x0c, 0x06, 0x06, 0x02, 0xf6,
  0xfa, 0x0f, 0xf2, 0xf9, 0x00, 0xfc, 0xde, 0xf0, 0x14, 0xc1, 0xf4, 0x0a,
  0xe9, 0x26, 0xdc, 0xde, 0xd5, 0xca, 0xf9, 0x15, 0x2c, 0x37, 0xed, 0x2c,
  0xf4, 0xc3, 0x04, 0x1a, 0x3c, 0x2c, 0x1a, 0x49, 0xda, 0xb9, 0xfe, 0x33,
  0x56, 0x26, 0x18, 0x2e, 0xd1, 0xc3, 0x22, 0xeb, 0x29, 0x17, 0x01, 0x2f,
  0xf6, 0xdc, 0x08, 0x0f, 0x0c, 0xf5, 0x00, 0x1b, 0x02, 0xf7, 0x03, 0x24,
  0x24, 0x01, 0x07, 0x2f, 0x09, 0x0b, 0xd9, 0x3b, 0x0f, 0xfb, 0x0f, 0x21,
  0x1f, 0xd4, 0xf8, 0x3f, 0x0d, 0x05, 0xf6, 0x24, 0x3e, 0x0b, 0xdc, 0x08,
  0x0f, 0x19, 0x27, 0x15, 0x38, 0xf0, 0xea, 0xeb, 0x25, 0x0f, 0xf5, 0x06,
  0x1b, 0xe7, 0xd8, 0x13, 0xf6, 0x07, 0xef, 0x13, 0x1c, 0xef, 0xe4, 0xea,
  0xea, 0xfe, 0xd7, 0x2c, 0xff, 0xde, 0x0e, 0xec, 0xda, 0x1d, 0xf0, 0x1a,
  0x1e, 0xcb, 0xf4, 0x0b, 0xf8, 0x16, 0x04, 0x1c, 0x0d, 0xea, 0x0e, 0xf3,
  0x0b, 0x10, 0xfc, 0x30, 0x15, 0xff, 0xe7, 0x0c, 0x09, 0xf6, 0x1b, 0x32,
  0x1e, 0xfe, 0xff, 0x06, 0xf3, 0xff, 0xe1, 0x0e, 0xfe, 0x0e, 0x19, 0x17,
  0xfe, 0xe2, 0xe9, 0xdd, 0x05, 0x01, 0xf9, 0xf9, 0x06, 0xe3, 0xce, 0xe8,
  0x15, 0xc3, 0x0a, 0x11, 0xe7, 0x30, 0xb1, 0x08, 0xd7, 0xc3, 0xf4, 0x26,
  0x1e, 0x16, 0xf2, 0x30, 0xf6, 0xc0, 0xd8, 0x1c, 0x28, 0x10, 0xf4, 0x61,
  0xff, 0xb7, 0x0a, 0x1b, 0x38, 0x39, 0x30, 0x34, 0xc3, 0xe6, 0x16, 0x1c,
  0x2e, 0x22, 0xfe, 0x56, 0xe8, 0xe7, 0x1b, 0x0c, 0x21, 0xf4, 0x01, 0x0b,
  0x0b, 0x09, 0xfc, 0x1b, 0x03, 0x0d, 0x17, 0x27, 0x2d, 0xfa, 0xe8, 0x1f,
  0x36, 0x0b, 0x22, 0x14, 0x1f, 0xdc, 0xd5, 0x32, 0x29, 0x0b, 0x27, 0x08,
  0x42, 0xf8, 0x01, 0x17, 0x24, 0x1b, 0x1a, 0x33, 0x5a, 0xf3, 0x0f, 0x05,
  0x30, 0x22, 0x08, 0x13, 0x13, 0xda, 0x0d, 0x03, 0xec, 0xea, 0x05, 0xf9,
  0x02, 0xe4, 0xf1, 0xf5, 0xef, 0xfb, 0xf7, 0x1c, 0x16, 0xde, 0xee, 0xd6,
  0xe3, 0x09, 0x0e, 0x05, 0x00, 0xd7, 0x19, 0x0f, 0xff, 0x01, 0x08, 0x36,
  0x2b, 0xe8, 0x0d, 0x0d, 0x0b, 0xf4, 0x14, 0x2e, 0x18, 0xe6, 0xf0, 0x11,
  0xdb, 0x03, 0x12, 0x1c, 0x1f, 0xf8, 0x10, 0xed, 0x18, 0xfd, 0xfd, 0x1a,
  0x0d, 0x0f, 0xf3, 0x00, 0xf3, 0xe6, 0x0e, 0x03, 0xf7, 0x0c, 0xe3, 0xf0,
  0x14, 0x06, 0xf9, 0xd4, 0xe8, 0xc6, 0xea, 0x01, 0xee, 0x11, 0x0b, 0xd8,
  0xbe, 0xd9, 0x21, 0x19, 0xf9, 0x21, 0xeb, 0x24, 0xd1, 0xcf, 0xed, 0x0f,
  0x1a, 0x19, 0x04, 0x2c, 0xc8, 0xc9, 0x12, 0x26, 0x48, 0x21, 0x1b, 0x36,
  0xb3, 0xe5, 0x08, 0xe9, 0x22, 0x0d, 0xfc, 0x3b, 0xe2, 0x03, 0x0c, 0x0d,
  0x2c, 0xfa, 0xd8, 0x10, 0xf2, 0xfe, 0xed, 0x18, 0x20, 0x21, 0xe6, 0x31,
  0x10, 0x18, 0x08, 0x2d, 0x21, 0x1d, 0x18, 0x2f, 0x02, 0xf8, 0x16, 0x26,
  0x13, 0x0f, 0x19, 0x12, 0x24, 0x19, 0xea, 0x0a, 0x1c, 0x20, 0x14, 0x0f,
  0x13, 0x04, 0x16, 0x07, 0x25, 0x1a, 0x00, 0xf8, 0xf3, 0xe1, 0x14, 0x16,
  0x15, 0x01, 0xfb, 0x09, 0xf7, 0xfc, 0xeb, 0xf7, 0xf6, 0x08, 0x0b, 0x18,
  0xfa, 0xec, 0xfc, 0xe7, 0xf4, 0x12, 0xdf, 0x19, 0xff, 0xda, 0xfd, 0x07,
  0xeb, 0xf6, 0xec, 0x36, 0x07, 0xe5, 0x17, 0xea, 0xed, 0x0b, 0x01, 0x0c,
  0x1a, 0xed, 0xfb, 0x0b, 0x15, 0xf5, 0xf4, 0x1d, 0xfc, 0x02, 0xe0, 0xf5,
  0x06, 0xf8, 0x09, 0x03, 0xf1, 0x0a, 0xeb, 0x0a, 0x0c, 0xf8, 0x03, 0xf3,
  0xf1, 0x09, 0x0e, 0x0b, 0x17, 0xe9, 0x09, 0xe4, 0xf0, 0xe4, 0xe5, 0xd7,
  0x09, 0x21, 0xe5, 0xcd, 0xcc, 0xdc, 0x04, 0xff, 0x09, 0x3d, 0x12, 0xe9,
  0xf1, 0xd6, 0xf6, 0xfe, 0x11, 0x22, 0x11, 0x2c, 0xda, 0xdd, 0x08, 0x17,
  0x33, 0x2f, 0x08, 0x20, 0xcf, 0xfd, 0xf4, 0xe3, 0x30, 0x1c, 0x0f, 0x20,
  0xe9, 0x09, 0x30, 0xf5, 0xf3, 0x02, 0xf0, 0x1f, 0xf5, 0xf5, 0xf4, 0x1f,
  0x1c, 0x0c, 0xf9, 0x28, 0x1e, 0x15, 0x04, 0x10, 0x16, 0x11, 0x34, 0x30,
  0x22, 0x0d, 0x14, 0x09, 0x2b, 0x27, 0x05, 0x04, 0x1b, 0x19, 0x20, 0x06,
  0x14, 0x28, 0x1f, 0x02, 0x14, 0xf4, 0x02, 0x1b, 0x1d, 0x21, 0xf7, 0x0c,
  0x29, 0xf8, 0x13, 0x16, 0xf4, 0x25, 0x08, 0xf4, 0xfe, 0xed, 0x15, 0xf8,
  0xee, 0x0c, 0x0c, 0xf0, 0xf9, 0xf7, 0xfa, 0xea, 0xe6, 0x0f, 0x04, 0xf5,
  0xf8, 0xe2, 0xfe, 0xf6, 0xfb, 0x18, 0x12, 0x0c, 0x15, 0xfb, 0x0a, 0x09,
  0xf1, 0xea, 0xf7, 0x1e, 0x0f, 0x13, 0x0a, 0x0c, 0x1b, 0x2b, 0x02, 0x0a,
  0x0b, 0xf7, 0xf9, 0x01, 0xfa, 0xe8, 0xff, 0xf7, 0xf7, 0xfc, 0xf2, 0xfc,
  0xea, 0xf8, 0xfc, 0x05, 0xf8, 0xfc, 0xe1, 0xfb, 0x03, 0xf5, 0x00, 0xd9,
  0x0d, 0xca, 0xf7, 0x12, 0x0d, 0x20, 0x0c, 0xbe, 0xd5, 0xdd, 0xed, 0xf6,
  0xfa, 0x2f, 0x0e, 0xfe, 0xf3, 0xd8, 0xfd, 0xee, 0xea, 0x1b, 0x33, 0xee,
  0xed, 0xc6, 0x06, 0xf4, 0x17, 0x31, 0x20, 0x21, 0xd6, 0xe6, 0x1c, 0xeb,
  0x19, 0x25, 0x29, 0x25, 0xdc, 0xd2, 0x04, 0xd7, 0x01, 0x10, 0xf0, 0xf0,
  0xf5, 0x0d, 0x11, 0xf2, 0xfa, 0x2b, 0x05, 0x32, 0x14, 0x05, 0x04, 0xfc,
  0x0a, 0x33, 0x0e, 0x14, 0x25, 0xe7, 0x22, 0x13, 0x19, 0x17, 0xea, 0xf2,
  0xed, 0xfd, 0xe1, 0x01, 0x15, 0x15, 0x0e, 0xf6, 0x0d, 0xfa, 0xff, 0xff,
  0x12, 0x1e, 0x17, 0x0a, 0x09, 0xed, 0x05, 0x12, 0x18, 0x19, 0xfa, 0x1d,
  0x0d, 0xe4, 0xe5, 0x1c, 0x1f, 0x0d, 0xf8, 0xf1, 0xe5, 0xf8, 0xfc, 0xf2,
  0x0d, 0x14, 0xf9, 0xf9, 0x05, 0xea, 0xfb, 0xdc, 0x12, 0x19, 0xfd, 0x13,
  0x05, 0xff, 0xf3, 0x09, 0x02, 0xfd, 0xec, 0x05, 0x00, 0xf4, 0xed, 0xff,
  0xfa, 0x1b, 0x02, 0x10, 0x2f, 0xf6, 0xe1, 0xfb, 0x03, 0xff, 0x11, 0xe6,
  0x1e, 0x00, 0x10, 0x0e, 0xee, 0x06, 0xed, 0xf9, 0xf9, 0xf1, 0x07, 0xe8,
  0x05, 0x05, 0x04, 0x14, 0xdc, 0xfd, 0x0d, 0xfd, 0x0a, 0xf3, 0x08, 0xf7,
  0x0b, 0x05, 0xeb, 0xf3, 0xdd, 0xe1, 0xe9, 0x1c, 0xf0, 0x05, 0x08, 0xf2,
  0x1c, 0x09, 0xe8, 0x08, 0xed, 0xf9, 0x11, 0xe2, 0xf1, 0xde, 0x10, 0xe6,
  0xf5, 0x05, 0x13, 0x12, 0x01, 0xef, 0xfe, 0x02, 0xf2, 0x03, 0x16, 0x25,
  0x04, 0xde, 0xeb, 0xfa, 0x01, 0x06, 0xda, 0xd6, 0x0d, 0xf5, 0xd6, 0xe5,
  0xfc, 0xfd, 0x24, 0x07, 0xe4, 0xda, 0x01, 0xf5, 0x00, 0xf1, 0xea, 0xea,
  0xea, 0x01, 0x01, 0x19, 0xe4, 0xf4, 0xe6, 0xe7, 0x24, 0x0b, 0x1d, 0x02,
  0x1c, 0xe1, 0xf3, 0x1b, 0xdd, 0x0d, 0xf3, 0x08, 0x0f, 0x0b, 0x08, 0xee,
  0xf7, 0x20, 0xf8, 0x15, 0xd4, 0x0f, 0x19, 0xe7, 0x0e, 0xf7, 0xee, 0xde,
  0x07, 0xe7, 0xfc, 0x0a, 0xea, 0xfc, 0xf0, 0xeb, 0x17, 0x02, 0xdd, 0xee,
  0xf0, 0x02, 0x11, 0x1b, 0x15, 0xde, 0xfb, 0x15, 0x07, 0x20, 0x02, 0xd7,
  0xed, 0xdb, 0x09, 0x1f, 0xf3, 0x12, 0x21, 0x0d, 0xf7, 0xf6, 0xfe, 0x21,
  0xf1, 0xfd, 0xf6, 0x19, 0x26, 0x0c, 0x06, 0x0d, 0x14, 0xf0, 0xf7, 0x0d,
  0xe3, 0xf3, 0xea, 0xeb, 0x09, 0xd2, 0x21, 0x01, 0xfb, 0xf4, 0xe6, 0xec,
  0x06, 0xfd, 0x01, 0xfa, 0xdd, 0x15, 0x1c, 0x02, 0x0c, 0xfa, 0xfd, 0x1f,
  0xd7, 0x0d, 0xe8, 0x06, 0xea, 0x18, 0xfa, 0x17, 0xdf, 0x12, 0xf8, 0xe1,
  0xff, 0x19, 0xf7, 0xeb, 0x0b, 0x0e, 0xf2, 0x16, 0x13, 0x02, 0x1b, 0xfd,
  0x1a, 0xfb, 0xfb, 0xf8, 0x0b, 0x02, 0xd7, 0x17, 0x00, 0xee, 0xfe, 0x1a,
  0x07, 0xf9, 0xd7, 0x08, 0x02, 0x0a, 0xea, 0xec, 0xe5, 0x17, 0xf6, 0xed,
  0x06, 0x0e, 0x08, 0x2a, 0xef, 0x14, 0x15, 0x02, 0xeb, 0x03, 0x07, 0xf1,
  0xfb, 0x17, 0xe0, 0xd7, 0x0e, 0xf4, 0xfa, 0xe5, 0xf9, 0x14, 0xe6, 0x15,
  0x05, 0xfe, 0xfb, 0xfb, 0xe2, 0x0f, 0x23, 0xec, 0xf6, 0x0c, 0xe8, 0x0b,
  0xfb, 0x0b, 0x0a, 0xea, 0x0b, 0xff, 0xee, 0x1b, 0x09, 0x01, 0xe9, 0xf0,
  0xd6, 0xfc, 0xf3, 0x06, 0x10, 0x0e, 0x1f, 0xef, 0x0b, 0xee, 0x0c, 0x0f,
  0xd4, 0xf1, 0xd8, 0x12, 0x09, 0xeb, 0x1f, 0xf2, 0xef, 0xe3, 0x19, 0xfd,
  0xee, 0xfc, 0x0a, 0x0a, 0x16, 0x0b, 0x12, 0x09, 0xdd, 0xf3, 0xf2, 0xff,
  0x14, 0x0c, 0x01, 0xf6, 0xfb, 0xfb, 0xfb, 0x0a, 0x04, 0xf8, 0x08, 0xf8,
  0xe7, 0x2f, 0xf2, 0x0d, 0x0e, 0xf2, 0x2c, 0xdf, 0x16, 0x11, 0xf4, 0xd6,
  0xd7, 0x02, 0xf0, 0x0e, 0xe9, 0x1b, 0xef, 0xf0, 0xda, 0xfd, 0xf8, 0xfc,
  0xf7, 0x14, 0xf8, 0x22, 0xe0, 0xff, 0xe6, 0xf4, 0x10, 0xfe, 0x12, 0x28,
  0xd9, 0x07, 0xf8, 0xee, 0x17, 0x20, 0xe1, 0x35, 0x31, 0xee, 0xf0, 0x0f,
  0xfc, 0x14, 0xfe, 0x19, 0x31, 0xfa, 0x03, 0xf4, 0xe0, 0xf0, 0xf9, 0x21,
  0x1a, 0xff, 0x01, 0xd2, 0xfc, 0xfb, 0xfa, 0xf0, 0x0f, 0xfd, 0xda, 0xf3,
  0x0e, 0xe2, 0xeb, 0xfa, 0x01, 0x08, 0xd0, 0xfc, 0xe6, 0x0e, 0x10, 0xf3,
  0x13, 0xf9, 0xdb, 0xec, 0xff, 0xfc, 0x03, 0x27, 0xf2, 0x0b, 0x1c, 0x03,
  0xf6, 0xe2, 0xe5, 0xff, 0xe6, 0x04, 0xe4, 0xef, 0x0c, 0x1c, 0xe1, 0x2b,
  0x08, 0xe8, 0xf4, 0x1a, 0x02, 0xfb, 0xfb, 0x1b, 0x18, 0x02, 0x00, 0xed,
  0xe9, 0xec, 0x21, 0x17, 0xfe, 0xe7, 0xe8, 0xf6, 0xff, 0x17, 0xe9, 0x07,
  0xe9, 0xf4, 0xe9, 0x19, 0x10, 0x11, 0xf7, 0x2a, 0xec, 0xe9, 0xda, 0x0c,
  0xe3, 0x0b, 0x00, 0x02, 0x06, 0x00, 0x04, 0xdb, 0xf8, 0x2a, 0xff, 0xef,
  0x19, 0x00, 0x0c, 0x1b, 0x28, 0x05, 0x0b, 0xea, 0x06, 0x10, 0x11, 0xf2,
  0x02, 0xf1, 0x07, 0xc0, 0xe6, 0x17, 0xed, 0x0b, 0xf7, 0xf1, 0xe5, 0xd7,
  0xd5, 0x08, 0xef, 0xf0, 0x17, 0xfc, 0xfb, 0x21, 0xf0, 0x15, 0xff, 0xf9,
  0x20, 0xfd, 0xf2, 0x33, 0x0a, 0x04, 0x15, 0xda, 0xed, 0xdb, 0x1a, 0x38,
  0x26, 0x13, 0x06, 0x0b, 0x10, 0x25, 0x07, 0x32, 0x3b, 0x07, 0xf8, 0x10,
  0x13, 0x19, 0xe9, 0xed, 0x3c, 0xfc, 0x12, 0x21, 0xfb, 0x0c, 0x0c, 0x13,
  0xe8, 0xfe, 0xe4, 0xf7, 0xf3, 0xdc, 0xf0, 0x05, 0x04, 0x0c, 0xe9, 0x08,
  0x07, 0xf3, 0x0f, 0x10, 0xeb, 0x18, 0x02, 0xeb, 0xe2, 0x0d, 0x1c, 0xf8,
  0x18, 0x1a, 0xfa, 0xde, 0x12, 0x10, 0xdd, 0x16, 0xf1, 0x03, 0xec, 0x10,
  0xd5, 0xfe, 0xf7, 0x0a, 0xf6, 0x0c, 0xf1, 0xfd, 0x05, 0x02, 0x18, 0xe6,
  0x1a, 0xfa, 0x21, 0x21, 0xea, 0x06, 0x04, 0xf7, 0xed, 0x02, 0xe7, 0xed,
  0x2c, 0x00, 0xf6, 0x05, 0xe5, 0xf7, 0x1e, 0xee, 0x29, 0x19, 0xf9, 0xd5,
  0xe1, 0xfa, 0xf2, 0x0a, 0xf7, 0xe9, 0x10, 0xff, 0x08, 0x09, 0x05, 0xf1,
  0xfa, 0x0e, 0xef, 0x00, 0x0c, 0x09, 0x09, 0x01, 0x23, 0xff, 0xed, 0x0b,
  0x2d, 0xdb, 0x3f, 0x18, 0xe3, 0x1a, 0x03, 0xe5, 0xc6, 0x1f, 0x12, 0xd9,
  0x05, 0x02, 0x20, 0xf8, 0xd8, 0x22, 0x17, 0xfc, 0xf3, 0xf7, 0x0e, 0x13,
  0xe7, 0x04, 0xea, 0xfb, 0x0b, 0x1d, 0xeb, 0x3d, 0xf3, 0x1a, 0x0b, 0xec,
  0xfd, 0x07, 0x0d, 0x09, 0x18, 0x1e, 0x0d, 0x05, 0x18, 0x23, 0x08, 0x14,
  0x2a, 0x17, 0x01, 0x00, 0xe8, 0xe1, 0xfb, 0xe7, 0x23, 0x12, 0x22, 0x05,
  0xfc, 0xd5, 0xff, 0xca, 0xfc, 0x10, 0xee, 0x10, 0xf0, 0x1e, 0x1a, 0x0c,
  0x07, 0x1d, 0xf1, 0x0b, 0x15, 0xfa, 0x10, 0x21, 0x05, 0x23, 0x0d, 0xfc,
  0xcd, 0x02, 0x21, 0x22, 0xf1, 0xf4, 0xf8, 0xf0, 0x00, 0xf7, 0xf9, 0xf8,
  0x05, 0x0b, 0xe9, 0xce, 0x13, 0xe6, 0xdd, 0xe9, 0xff, 0x16, 0x0b, 0x03,
  0xf1, 0xe1, 0xf0, 0xe9, 0xfd, 0xfd, 0x0b, 0xf0, 0xf3, 0xe5, 0x09, 0x05,
  0xe9, 0xdc, 0xff, 0xf9, 0x1d, 0x11, 0xf5, 0x0d, 0x14, 0xe3, 0x15, 0xf4,
  0x03, 0xf0, 0x06, 0xfe, 0xf5, 0xfe, 0xf3, 0xf2, 0x26, 0xff, 0x25, 0x0f,
  0x0e, 0xfe, 0x0b, 0xf6, 0xf5, 0xf6, 0x0c, 0x04, 0xf5, 0x14, 0x0b, 0xf4,
  0xf6, 0x0e, 0xef, 0x11, 0x2e, 0xc9, 0x3c, 0xe6, 0xe8, 0x02, 0xfd, 0xcd,
  0xd6, 0x2a, 0xd9, 0xd2, 0xfb, 0x21, 0xfc, 0xcf, 0xca, 0x26, 0xf5, 0xf5,
  0x15, 0x0c, 0xfb, 0x19, 0xd7, 0x2b, 0xdf, 0xee, 0x24, 0x0e, 0x13, 0x18,
  0xf9, 0x20, 0xf0, 0x08, 0xf5, 0xf7, 0xec, 0x16, 0x28, 0x09, 0x1a, 0x0b,
  0x0a, 0x17, 0x25, 0x07, 0x32, 0x15, 0x05, 0x08, 0x20, 0xf8, 0xe7, 0xf9,
  0x1e, 0x03, 0x24, 0xfa, 0xda, 0xf7, 0x0f, 0xd9, 0x09, 0x29, 0xe3, 0xfb,
  0xf9, 0x04, 0x1e, 0x0a, 0xe6, 0x18, 0x01, 0x21, 0xe2, 0xe7, 0x18, 0x1d,
  0xf5, 0x0f, 0x11, 0x17, 0xf1, 0xf0, 0xf7, 0x32, 0x0b, 0xed, 0x0d, 0xd9,
  0x00, 0xfe, 0x0a, 0x02, 0xd7, 0xf2, 0x0e, 0xeb, 0x02, 0xfa, 0x03, 0x0d,
  0x17, 0x0d, 0xea, 0xfc, 0x1f, 0x27, 0x13, 0xf7, 0xe6, 0xff, 0x0b, 0x00,
  0x0b, 0xde, 0x14, 0x06, 0x10, 0xe8, 0x16, 0xf6, 0xfa, 0xf2, 0x0e, 0xc3,
  0x0d, 0xdd, 0xe8, 0xfd, 0x10, 0xfb, 0xf8, 0xe8, 0xf1, 0xfe, 0xf9, 0xf4,
  0x0e, 0xec, 0x1d, 0xfe, 0xea, 0xf6, 0x26, 0x16, 0xff, 0xcb, 0x0c, 0xfe,
  0x09, 0x03, 0xfc, 0x08, 0x10, 0x08, 0x06, 0xf6, 0x34, 0xb6, 0x2b, 0xe5,
  0x03, 0xf5, 0xf2, 0xb5, 0xeb, 0x28, 0x13, 0xe3, 0x2e, 0x34, 0x10, 0xea,
  0xdb, 0x34, 0xc5, 0x13, 0x28, 0x2c, 0x04, 0x0c, 0xb0, 0x33, 0xd2, 0x0f,
  0x07, 0x2d, 0xf2, 0x27, 0x05, 0xf9, 0x0d, 0xfc, 0x0b, 0x22, 0x01, 0x13,
  0x26, 0xed, 0x07, 0x11, 0xfc, 0x3c, 0xea, 0xf9, 0x17, 0xfe, 0x14, 0x01,
  0x38, 0xd6, 0xe2, 0xd2, 0x0e, 0x18, 0x04, 0x0b, 0xea, 0x00, 0x20, 0xd9,
  0x06, 0x0e, 0xe7, 0x0f, 0xfb, 0x14, 0x0e, 0x00, 0xef, 0x23, 0xf9, 0x18,
  0x0d, 0xf9, 0x23, 0x14, 0xf8, 0x23, 0xfa, 0xfe, 0xee, 0xea, 0x00, 0x18,
  0xeb, 0x03, 0x0d, 0x0b, 0x0b, 0xf9, 0xf6, 0xee, 0x01, 0xd4, 0x01, 0xdb,
  0xfe, 0x19, 0xeb, 0xf3, 0x1a, 0x18, 0xe9, 0x19, 0xdf, 0xee, 0xe4, 0xd9,
  0x0a, 0xff, 0xe9, 0xfc, 0x23, 0x04, 0x00, 0x0a, 0x01, 0xe5, 0x18, 0xf6,
  0xd6, 0xfc, 0xfe, 0xd6, 0xf3, 0xcd, 0xfb, 0x1a, 0x1a, 0xec, 0xe7, 0xdb,
  0x0a, 0xec, 0xd8, 0x1c, 0x10, 0xfe, 0x00, 0x01, 0xff, 0x02, 0xf0, 0xf6,
  0xfe, 0xd4, 0x10, 0x0d, 0x08, 0x0e, 0xfc, 0x09, 0xf4, 0x15, 0xd9, 0xf2,
  0x22, 0xbb, 0x53, 0xf8, 0xf9, 0x0c, 0x16, 0xbb, 0xde, 0x2d, 0x0e, 0xe5,
  0x15, 0x55, 0xef, 0xf2, 0xad, 0x2a, 0xa1, 0x15, 0x1d, 0x28, 0x09, 0x17,
  0xae, 0x31, 0xb8, 0x0e, 0x31, 0x31, 0x07, 0x0c, 0xfc, 0x14, 0xee, 0xf4,
  0xe4, 0x0e, 0xfd, 0x0e, 0x17, 0x11, 0x37, 0xe5, 0x16, 0x05, 0x15, 0xf1,
  0x31, 0xf7, 0x3c, 0x03, 0x0c, 0x0f, 0xf4, 0xcf, 0xfc, 0x1e, 0xef, 0xf5,
  0xf1, 0xe4, 0x12, 0xc0, 0xf4, 0x20, 0x0f, 0x22, 0xde, 0x15, 0x03, 0x0e,
  0xf1, 0x0d, 0xf5, 0x21, 0x13, 0xfe, 0xeb, 0xf6, 0xf0, 0x2e, 0xe3, 0xfb,
  0xfd, 0xed, 0x10, 0xfc, 0x05, 0xfb, 0x1b, 0xe5, 0xdb, 0x09, 0x1a, 0x08,
  0xe1, 0xe0, 0xfc, 0xe2, 0x01, 0x06, 0xf3, 0xf3, 0x03, 0x11, 0x19, 0x02,
  0x08, 0xfb, 0xfa, 0xf9, 0xee, 0xf9, 0xe5, 0x04, 0x0c, 0xf8, 0xed, 0xf4,
  0xf6, 0x05, 0x14, 0x13, 0x17, 0x01, 0x1d, 0xcd, 0xef, 0xea, 0xf6, 0xf0,
  0x2a, 0xe8, 0xf6, 0xed, 0xef, 0x03, 0xe6, 0x08, 0x1a, 0xed, 0xf4, 0xe3,
  0xd8, 0xfb, 0x03, 0x0f, 0xf3, 0xeb, 0x08, 0xee, 0x0f, 0xf4, 0xe9, 0x08,
  0xf3, 0x2f, 0xf8, 0x10, 0x34, 0xe3, 0x37, 0xed, 0x16, 0xfd, 0xe6, 0xdd,
  0xf4, 0x1d, 0x0a, 0x0c, 0x00, 0x53, 0xee, 0xed, 0xd1, 0x31, 0xb2, 0x02,
  0x33, 0x0f, 0x1b, 0x20, 0xb0, 0x18, 0xcc, 0x20, 0x40, 0x2d, 0x18, 0x27,
  0xfd, 0x18, 0x05, 0x06, 0x0f, 0x14, 0xf5, 0x02, 0x1d, 0x00, 0x41, 0xf6,
  0x0f, 0x1e, 0x17, 0xf3, 0x30, 0xef, 0x29, 0xf3, 0x1d, 0x11, 0x10, 0xdd,
  0x0a, 0x33, 0x1a, 0x08, 0x1b, 0xf6, 0xeb, 0xd0, 0xfe, 0x0b, 0x13, 0x05,
  0x08, 0xff, 0x20, 0xf6, 0xec, 0x40, 0xfa, 0x28, 0x03, 0x07, 0xdd, 0x18,
  0xfa, 0x03, 0xf4, 0x05, 0xe8, 0xea, 0x05, 0xef, 0xf3, 0x0a, 0x02, 0xdd,
  0x25, 0x0d, 0x05, 0xf0, 0x08, 0xec, 0x06, 0xd0, 0x27, 0xf6, 0x24, 0xfc,
  0x04, 0x20, 0x10, 0xf4, 0xe9, 0xf6, 0x1a, 0xeb, 0x17, 0x05, 0x16, 0xe0,
  0x0a, 0xd7, 0xf2, 0xf1, 0x20, 0xf8, 0x14, 0x00, 0xe5, 0xe7, 0xf9, 0xdd,
  0xf3, 0xee, 0xe5, 0xf7, 0xe6, 0xc2, 0xea, 0xd3, 0xfe, 0xf4, 0xe4, 0xf2,
  0x11, 0xfd, 0xf4, 0xe3, 0xf6, 0x0c, 0xfe, 0xea, 0xee, 0xd2, 0x12, 0x08,
  0x11, 0xd8, 0x11, 0x08, 0xfa, 0x26, 0x04, 0xd8, 0x4e, 0xe8, 0x42, 0xd2,
  0x19, 0x0e, 0x07, 0xe4, 0xe2, 0x13, 0x08, 0xe9, 0x39, 0x2a, 0xee, 0xf6,
  0xd9, 0x2f, 0xb1, 0x12, 0x48, 0x1d, 0x0e, 0x33, 0xbb, 0x3d, 0xe7, 0xf4,
  0x28, 0x15, 0xfe, 0x1a, 0x00, 0x17, 0xf7, 0xf9, 0x21, 0x16, 0x1c, 0x0c,
  0x2e, 0x18, 0x48, 0x05, 0x31, 0x1d, 0xef, 0xf9, 0x4a, 0x15, 0x1f, 0x0b,
  0x3a, 0x08, 0x19, 0xc6, 0x0d, 0x21, 0x13, 0x04, 0xdd, 0xf5, 0x24, 0xa1,
  0x10, 0x30, 0x08, 0x1b, 0xe1, 0x0f, 0xfc, 0xfd, 0xfd, 0x24, 0xfd, 0x12,
  0x27, 0x0f, 0x25, 0x0f, 0xf0, 0xf6, 0x05, 0x04, 0xe9, 0x11, 0x02, 0x16,
  0x00, 0xf2, 0x07, 0xed, 0x1f, 0x2f, 0xfa, 0xeb, 0xf7, 0xf3, 0x04, 0xf2,
  0x1d, 0x00, 0xf6, 0xf6, 0xfc, 0xfd, 0x0f, 0x0b, 0xf0, 0x0d, 0xfc, 0x01,
  0x05, 0xe0, 0x22, 0xf4, 0xda, 0xef, 0xeb, 0xfd, 0xf9, 0xeb, 0x1e, 0x0a,
  0xfb, 0xe7, 0x0b, 0xce, 0xf7, 0xd5, 0x00, 0x06, 0x1f, 0xd6, 0xf4, 0xd5,
  0xe3, 0x1a, 0xf0, 0x19, 0x0f, 0xf6, 0xe9, 0xbd, 0x0c, 0x16, 0xdf, 0xe1,
  0x0e, 0x06, 0x06, 0xf0, 0x18, 0x17, 0x10, 0xfe, 0xdc, 0x07, 0xe7, 0xee,
  0x33, 0xe7, 0x3b, 0xe8, 0x2d, 0x21, 0x1f, 0xd7, 0xf9, 0x19, 0x25, 0xff,
  0x2b, 0x45, 0x15, 0xda, 0xf7, 0x26, 0xc8, 0xf3, 0x1c, 0x24, 0x01, 0x05,
  0xa2, 0x35, 0xdb, 0xf6, 0x3d, 0x1b, 0xe8, 0x16, 0x06, 0x11, 0x0a, 0x09,
  0xf5, 0x2c, 0xd8, 0xfa, 0x19, 0x02, 0x33, 0x03, 0x34, 0xf9, 0x11, 0xfd,
  0x22, 0xf0, 0x1a, 0xf1, 0x13, 0x0e, 0xf9, 0xb7, 0x27, 0x27, 0x0e, 0x1a,
  0x0b, 0xf3, 0x11, 0xcd, 0xf3, 0x33, 0xeb, 0x1a, 0xfc, 0x1e, 0x1c, 0xcb,
  0xe1, 0x0c, 0xf5, 0x0b, 0xd6, 0x0d, 0xf0, 0x09, 0xf8, 0xfc, 0x0b, 0x07,
  0x0f, 0x14, 0x1d, 0x06, 0x0c, 0xf2, 0x0e, 0xcf, 0xef, 0x33, 0xd7, 0xdf,
  0xe5, 0xf9, 0xdf, 0x0a, 0x19, 0xf8, 0xff, 0xec, 0x10, 0xfa, 0x00, 0xda,
  0xd9, 0xeb, 0xff, 0x16, 0x01, 0xff, 0x18, 0xdf, 0x00, 0xef, 0xfb, 0xdb,
  0x12, 0x12, 0x1f, 0x13, 0xfd, 0xe9, 0x21, 0xdc, 0xf5, 0xe0, 0xf2, 0xdf,
  0x06, 0xd8, 0xea, 0xce, 0xf8, 0xfe, 0xd7, 0x07, 0x03, 0x12, 0x0f, 0xdb,
  0xec, 0xfd, 0x0b, 0xfd, 0xeb, 0xea, 0x17, 0x03, 0x29, 0xf9, 0x28, 0x08,
  0x03, 0xfe, 0xf2, 0xf2, 0x41, 0x11, 0x25, 0xf6, 0x48, 0x2d, 0x0a, 0xda,
  0xf4, 0x38, 0x0d, 0xe6, 0x22, 0x32, 0x17, 0xf4, 0xe9, 0x28, 0xd0, 0xf6,
  0x28, 0x17, 0xf8, 0x1c, 0xbd, 0x33, 0xdf, 0x07, 0x24, 0x24, 0xef, 0x24,
  0xf7, 0x05, 0x05, 0xee, 0x07, 0x15, 0xea, 0x0d, 0x17, 0x12, 0x2a, 0xfe,
  0x34, 0xf7, 0xf4, 0xd3, 0x16, 0x07, 0x31, 0x1e, 0x2a, 0xfb, 0x04, 0xab,
  0x02, 0x1f, 0x06, 0x07, 0xc5, 0xde, 0x1b, 0xc8, 0x05, 0x3a, 0xfb, 0xf6,
  0xf6, 0x0a, 0x05, 0xda, 0xd4, 0x1e, 0x06, 0x2e, 0xde, 0x08, 0xfb, 0x0a,
  0xf6, 0x0d, 0xea, 0xe5, 0x05, 0x12, 0x15, 0x05, 0x15, 0xec, 0x18, 0xe6,
  0xfe, 0x2d, 0x2b, 0xe0, 0xea, 0x02, 0xe1, 0xea, 0x04, 0x02, 0xdf, 0xe8,
  0x06, 0x15, 0xf9, 0x17, 0xdd, 0x16, 0xec, 0x05, 0x01, 0xf8, 0x26, 0x06,
  0xf6, 0x02, 0xfe, 0xd4, 0x14, 0xf4, 0x0c, 0xf8, 0xff, 0xfd, 0xee, 0xdf,
  0xf5, 0x00, 0x05, 0xfe, 0x2e, 0xf8, 0xf0, 0xf7, 0xe9, 0xf6, 0xef, 0xf2,
  0x04, 0x0f, 0xfe, 0xec, 0xf9, 0xe7, 0x08, 0xfe, 0x09, 0x02, 0x1d, 0x0a,
  0x0f, 0x0f, 0x1b, 0xee, 0xfe, 0x11, 0x16, 0x03, 0x2d, 0x10, 0x48, 0x01,
  0x10, 0x22, 0xf3, 0xd1, 0xfe, 0x19, 0x16, 0xec, 0x30, 0x3f, 0x18, 0xec,
  0xe1, 0x25, 0xdc, 0x07, 0x23, 0x28, 0x00, 0x2d, 0xbe, 0x28, 0xe6, 0x11,
  0x25, 0x26, 0x0e, 0x10, 0xea, 0x02, 0x1a, 0x10, 0x07, 0x06, 0x00, 0xee,
  0x18, 0xfa, 0x41, 0x0b, 0xf4, 0xfd, 0xe9, 0xce, 0x39, 0xff, 0x33, 0x06,
  0x18, 0xf4, 0xf0, 0xce, 0x11, 0x17, 0x14, 0x12, 0xf3, 0xf2, 0x0d, 0xc1,
  0x09, 0x2c, 0xf1, 0x08, 0x02, 0xfc, 0xfb, 0x09, 0xfa, 0x08, 0xf3, 0x08,
  0xe5, 0xf4, 0x19, 0x17, 0xe8, 0xea, 0x06, 0xef, 0xdf, 0x15, 0xf5, 0x09,
  0x08, 0xda, 0x07, 0xe3, 0xe1, 0x1b, 0xf0, 0xe1, 0x09, 0x04, 0xfe, 0xf4,
  0x23, 0x02, 0x16, 0xe6, 0x09, 0x13, 0x18, 0xfa, 0x08, 0xf9, 0xf0, 0xfa,
  0x02, 0x1e, 0x20, 0xfb, 0xf3, 0xe4, 0x15, 0xf8, 0xf9, 0xff, 0xe7, 0x14,
  0x0d, 0xe3, 0xf9, 0xc7, 0xf3, 0xf8, 0x00, 0xf5, 0x11, 0xdd, 0xe7, 0xe3,
  0x07, 0xeb, 0xee, 0xfe, 0xfd, 0x0c, 0xed, 0xdc, 0xff, 0xf4, 0xea, 0x2d,
  0xf6, 0x01, 0x02, 0x0e, 0x0d, 0x02, 0x23, 0xf0, 0xed, 0x08, 0xef, 0x11,
  0x44, 0x28, 0x32, 0xf8, 0x0e, 0x35, 0x11, 0xdc, 0xfa, 0x43, 0x26, 0xc5,
  0x21, 0x34, 0xf0, 0xf8, 0xe7, 0x50, 0xbf, 0xda, 0x0a, 0x24, 0x0a, 0x27,
  0x9b, 0x38, 0xcc, 0x0b, 0x18, 0x29, 0xff, 0x28, 0x0a, 0x30, 0x13, 0xf6,
  0xff, 0x16, 0xe0, 0x14, 0x1f, 0x1c, 0x1e, 0x05, 0x1d, 0x0b, 0x10, 0x02,
  0x23, 0xf9, 0x25, 0xff, 0xe6, 0x00, 0x25, 0xd1, 0xee, 0x1f, 0xff, 0x1b,
  0xd3, 0xf0, 0x1e, 0xbd, 0xf0, 0x0f, 0xfc, 0x12, 0x07, 0xe7, 0x14, 0xe1,
  0x01, 0x15, 0xde, 0x17, 0xcd, 0x00, 0x1d, 0x1f, 0xde, 0x0c, 0xe4, 0xf0,
  0xec, 0x0a, 0xff, 0x03, 0x05, 0xf2, 0x0c, 0xd7, 0xe7, 0x0c, 0x20, 0xdc,
  0xfe, 0x03, 0x12, 0xf4, 0x1c, 0x06, 0xe8, 0xfc, 0x10, 0x04, 0x11, 0x11,
  0xd5, 0x11, 0x1c, 0x1d, 0x1f, 0x0c, 0x07, 0xfa, 0xe4, 0x16, 0x01, 0xfb,
  0x06, 0xf0, 0x24, 0xe7, 0x31, 0x0b, 0xf3, 0xe9, 0x02, 0xfb, 0x0d, 0xf3,
  0x19, 0xec, 0x00, 0x04, 0xe7, 0xdc, 0xfb, 0xe9, 0x11, 0x05, 0xf8, 0xcb,
  0x0b, 0xfe, 0x26, 0x23, 0x06, 0xf2, 0xe1, 0x0b, 0x20, 0x25, 0x1d, 0xef,
  0x1d, 0xfc, 0xf4, 0x04, 0x4b, 0x0d, 0x46, 0xf4, 0x09, 0x13, 0x26, 0xf4,
  0xe8, 0x50, 0xfc, 0xb7, 0x11, 0x2f, 0x16, 0x0c, 0xfe, 0x39, 0xcf, 0x03,
  0x23, 0x1e, 0xeb, 0x2f, 0xcb, 0x32, 0xc6, 0x06, 0x2f, 0x25, 0xf1, 0x2b,
  0xf5, 0x10, 0x05, 0x23, 0xfa, 0x24, 0xf7, 0x20, 0x0d, 0x10, 0x19, 0x18,
  0x25, 0x22, 0x0e, 0xe4, 0x26, 0x10, 0x25, 0xfd, 0xfc, 0xee, 0x04, 0xc2,
  0x19, 0x1b, 0x16, 0x06, 0xcf, 0x1a, 0x29, 0xae, 0x0c, 0x3d, 0xf7, 0x22,
  0x0e, 0x18, 0xee, 0xec, 0xfd, 0x25, 0xee, 0x23, 0xcf, 0xf0, 0xfa, 0x0e,
  0xe9, 0x21, 0xf2, 0xe4, 0xff, 0xf9, 0x00, 0xde, 0x14, 0x04, 0x05, 0xce,
  0x04, 0x1d, 0x26, 0xd3, 0x0a, 0x04, 0x04, 0xdf, 0x0a, 0xf6, 0xfe, 0x03,
  0x02, 0xf6, 0xed, 0xf1, 0xf7, 0xf7, 0x0d, 0x0c, 0x0a, 0x16, 0x08, 0xee,
  0xec, 0x0b, 0xe2, 0xea, 0x0f, 0xf0, 0x22, 0x06, 0x22, 0xf7, 0x03, 0xeb,
  0x03, 0x0c, 0xeb, 0xfe, 0x08, 0xf2, 0xf8, 0xed, 0xf8, 0xea, 0xe3, 0x1a,
  0x26, 0x06, 0x10, 0xd6, 0xfc, 0xdd, 0xed, 0xf2, 0x04, 0xfd, 0xe9, 0x13,
  0x11, 0x1a, 0x2d, 0x17, 0xfd, 0xed, 0xf7, 0xf3, 0x3f, 0x16, 0x51, 0xfe,
  0x17, 0x2c, 0x23, 0xd7, 0x08, 0x33, 0x01, 0xe3, 0x28, 0x01, 0x1f, 0x05,
  0x03, 0x32, 0xee, 0x0f, 0x1e, 0x0f, 0xf0, 0x0a, 0xd0, 0x1c, 0xd1, 0xe5,
  0x0f, 0x2e, 0xec, 0x25, 0x0b, 0x18, 0xed, 0x04, 0x29, 0x34, 0x0a, 0x0a,
  0x15, 0x30, 0x45, 0x0a, 0x11, 0x03, 0x11, 0xf9, 0x2b, 0x18, 0x51, 0x24,
  0x06, 0xe9, 0x30, 0xb5, 0xf7, 0x21, 0x27, 0x14, 0xd7, 0x08, 0x24, 0xc7,
  0x02, 0x22, 0xed, 0x29, 0x00, 0x11, 0x1b, 0xed, 0xd1, 0x2d, 0xd6, 0x15,
  0xe7, 0x02, 0xf6, 0x24, 0xe2, 0x0a, 0x06, 0x05, 0xde, 0x00, 0x11, 0xef,
  0x0e, 0xfa, 0x12, 0x04, 0x09, 0x0f, 0xda, 0xeb, 0x0b, 0x01, 0xf9, 0xdb,
  0xea, 0xfe, 0xf5, 0xfb, 0x19, 0xfd, 0x0f, 0xfe, 0xfa, 0xf1, 0x11, 0x14,
  0x0b, 0x04, 0x1c, 0xfd, 0xd3, 0x09, 0x1c, 0xe7, 0x13, 0x07, 0x28, 0x0a,
  0x10, 0xeb, 0x25, 0xf5, 0x03, 0xe7, 0x03, 0xd2, 0x2a, 0xed, 0xf9, 0xdf,
  0xdb, 0xf9, 0xf9, 0x0a, 0x18, 0x03, 0x02, 0xd7, 0xe2, 0xe7, 0xff, 0x12,
  0x05, 0x09, 0x08, 0xf1, 0x0e, 0x1d, 0x38, 0xff, 0xf3, 0x14, 0xf0, 0x0b,
  0x3d, 0x0c, 0x4d, 0x19, 0x07, 0xfc, 0xf9, 0xfe, 0x20, 0x34, 0x00, 0xbd,
  0x32, 0x25, 0xf6, 0x26, 0xe3, 0x31, 0xf3, 0x26, 0x35, 0x2f, 0xf1, 0x2a,
  0xbc, 0x18, 0xe0, 0x10, 0x19, 0x28, 0x07, 0x32, 0xfa, 0x21, 0x20, 0x1b,
  0xf5, 0x34, 0xe0, 0x12, 0x16, 0x1e, 0x2c, 0x29, 0x11, 0x12, 0x05, 0xf9,
  0x22, 0x1f, 0x27, 0x15, 0xdf, 0x08, 0x28, 0xc0, 0x0d, 0x25, 0x15, 0x16,
  0xc1, 0x0f, 0x1a, 0xc9, 0x06, 0x2a, 0xe5, 0x1b, 0xd8, 0xfb, 0x22, 0xf1,
  0xdb, 0x17, 0xda, 0x1e, 0xd5, 0xfb, 0xfa, 0x13, 0xf1, 0x21, 0xf5, 0x09,
  0xe3, 0x07, 0x12, 0xff, 0x16, 0x09, 0x08, 0xee, 0xe3, 0x17, 0xef, 0xdc,
  0x05, 0xf2, 0x15, 0xce, 0x01, 0x09, 0x09, 0x03, 0x18, 0xf8, 0x09, 0x05,
  0xeb, 0xfc, 0x12, 0xeb, 0xde, 0x08, 0x0d, 0xec, 0xf5, 0x13, 0x07, 0xf3,
  0x2e, 0xdf, 0x0f, 0x1a, 0xf5, 0xeb, 0x18, 0xf0, 0xf0, 0x25, 0xd7, 0x05,
  0x13, 0xde, 0xf6, 0x04, 0xf7, 0xe1, 0xf9, 0x07, 0x0b, 0x0d, 0xe7, 0xc9,
  0xe7, 0xe5, 0x19, 0xf9, 0x08, 0xeb, 0xee, 0x07, 0x1c, 0xef, 0x4c, 0xe8,
  0x01, 0xe9, 0xf5, 0x13, 0x5b, 0x05, 0x4e, 0x0d, 0x24, 0x20, 0x0c, 0xfa,
  0x1d, 0x25, 0x15, 0xde, 0x07, 0x05, 0x10, 0xfa, 0xff, 0x42, 0xe5, 0xff,
  0x28, 0x32, 0x22, 0x20, 0xdb, 0x43, 0xc7, 0x18, 0x11, 0x31, 0x1a, 0x23,
  0x07, 0x25, 0x0c, 0x1f, 0xf5, 0x38, 0x01, 0x19, 0x1b, 0x2a, 0x03, 0x30,
  0xfa, 0x1d, 0xec, 0xde, 0x22, 0x01, 0x2c, 0x13, 0xff, 0xfc, 0x34, 0xad,
  0x06, 0x2a, 0x28, 0x23, 0xc2, 0x15, 0x20, 0xc5, 0x0b, 0x2c, 0x0b, 0x24,
  0xfb, 0x1c, 0x31, 0x0a, 0xdf, 0x1a, 0xdf, 0x24, 0xf3, 0xfd, 0xf5, 0x04,
  0x01, 0x1f, 0x1b, 0x07, 0xd1, 0xec, 0x13, 0xfd, 0x07, 0xee, 0x05, 0xe2,
  0xed, 0x0f, 0x20, 0xf5, 0x1d, 0xee, 0x12, 0xda, 0xfb, 0x11, 0x19, 0xfd,
  0xf3, 0x06, 0xf1, 0xf8, 0xfc, 0x04, 0xe8, 0xff, 0xf7, 0xfa, 0x08, 0xfd,
  0xcb, 0x0f, 0xf9, 0xed, 0x0d, 0x0d, 0x05, 0x0b, 0x07, 0x06, 0x0c, 0xf7,
  0xea, 0x14, 0xd6, 0xfe, 0xfd, 0xe6, 0x09, 0xde, 0x03, 0xfa, 0xf4, 0xe7,
  0x06, 0x12, 0xe6, 0xea, 0x08, 0xf9, 0x19, 0xde, 0xfa, 0x02, 0xdd, 0xec,
  0x0e, 0x26, 0x22, 0x0d, 0x14, 0x00, 0xe0, 0xf5, 0x52, 0xfc, 0x3a, 0xe6,
  0x27, 0x14, 0x1b, 0x01, 0x18, 0x28, 0x16, 0xd6, 0x22, 0x1f, 0x26, 0x1e,
  0x03, 0x27, 0xf6, 0xf2, 0x1c, 0x23, 0x2d, 0x3b, 0xcf, 0x39, 0xbb, 0x10,
  0x28, 0x1a, 0x08, 0x1e, 0x1c, 0x20, 0x2e, 0x12, 0x0a, 0x21, 0x02, 0x0d,
  0xf9, 0x25, 0x22, 0x2f, 0x05, 0x0d, 0xd7, 0xd8, 0x26, 0x39, 0x0a, 0x0d,
  0xdf, 0x02, 0x25, 0xbe, 0x0f, 0x35, 0x1a, 0x16, 0xae, 0xf4, 0xf3, 0xdb,
  0xf4, 0x26, 0xe0, 0x21, 0xd9, 0x01, 0x24, 0xf6, 0xd8, 0x0e, 0xeb, 0x20,
  0xc9, 0x05, 0x19, 0xf1, 0xe1, 0x02, 0x0a, 0xfe, 0xef, 0x0c, 0x05, 0xf4,
  0x0d, 0xfc, 0xfe, 0xec, 0xf3, 0x1c, 0xf9, 0x15, 0x1f, 0x1c, 0xfe, 0xfb,
  0xdc, 0x1a, 0xd7, 0xf7, 0x03, 0x1c, 0x17, 0xf9, 0xeb, 0x0b, 0xff, 0x05,
  0x0e, 0x11, 0x01, 0xdb, 0xea, 0xff, 0x0c, 0xe8, 0xf8, 0x06, 0xf9, 0x0e,
  0x05, 0xf6, 0x0e, 0xf6, 0xe5, 0x12, 0xf2, 0xe9, 0xe8, 0xea, 0xe2, 0xdb,
  0xf4, 0xfd, 0xef, 0xf6, 0xf0, 0x06, 0x0f, 0xe2, 0xf0, 0xf2, 0xdb, 0x2b,
  0x0e, 0x09, 0xf5, 0xfe, 0x0f, 0xf4, 0x3b, 0xfa, 0x19, 0x17, 0xe0, 0xfd,
  0x4c, 0x17, 0x3a, 0x07, 0x13, 0x1e, 0xec, 0xfe, 0xfe, 0xfe, 0x1d, 0xf8,
  0x21, 0x15, 0xf8, 0x16, 0xf8, 0x0c, 0xef, 0xfa, 0x46, 0x34, 0x01, 0x1a,
  0xdc, 0x28, 0xd4, 0x0e, 0x40, 0x25, 0xf4, 0x1d, 0x16, 0x34, 0x3d, 0xef,
  0x24, 0x07, 0xe4, 0x1f, 0x17, 0x19, 0x3a, 0x1a, 0x01, 0xf2, 0x0d, 0xf3,
  0x1b, 0x36, 0x1b, 0xf2, 0xdc, 0xf1, 0xfb, 0xba, 0x13, 0x32, 0x0a, 0x2a,
  0xc4, 0xf6, 0x02, 0xcd, 0x01, 0x27, 0xfb, 0x28, 0xe9, 0xe8, 0xfb, 0xe6,
  0xec, 0x19, 0xe2, 0x2a, 0xa4, 0xf5, 0x04, 0xfb, 0xe7, 0x1d, 0x11, 0x17,
  0xdf, 0xfe, 0x01, 0x0b, 0xf9, 0xfa, 0x1a, 0xeb, 0xe0, 0x12, 0x07, 0x06,
  0xf6, 0x34, 0x1f, 0xdf, 0xcf, 0x08, 0x03, 0xfd, 0xf9, 0x08, 0x12, 0x18,
  0xf9, 0x17, 0xdc, 0x21, 0xf1, 0x0a, 0xfd, 0xf2, 0xe1, 0xff, 0x0c, 0x17,
  0xf6, 0xe5, 0x1c, 0xfb, 0xde, 0xfc, 0xda, 0xe5, 0xdf, 0x09, 0x04, 0xf1,
  0xf2, 0xdf, 0xe8, 0xe5, 0xff, 0x06, 0x14, 0xf0, 0x09, 0xef, 0xfc, 0xdf,
  0xf2, 0xfd, 0xfc, 0xf7, 0xfc, 0x07, 0xfc, 0xec, 0x04, 0x2f, 0x1b, 0xee,
  0x1c, 0x01, 0xe0, 0x22, 0x3d, 0x19, 0x4b, 0x01, 0x13, 0xf8, 0x06, 0xf1,
  0x34, 0x30, 0x0e, 0xe1, 0x1c, 0x06, 0xf4, 0x08, 0x03, 0x35, 0x0f, 0xf6,
  0xfe, 0x24, 0xfb, 0x2c, 0xff, 0x3d, 0xe8, 0x15, 0x22, 0x08, 0xeb, 0x10,
  0x09, 0x30, 0x10, 0xfb, 0x21, 0xf8, 0xf6, 0x23, 0x21, 0x12, 0x22, 0x14,
  0x09, 0xff, 0xfc, 0xfb, 0x30, 0x25, 0x1e, 0x15, 0xde, 0xe1, 0x13, 0xbf,
  0x04, 0x2f, 0xfb, 0x1b, 0xcc, 0xfc, 0x1a, 0xd7, 0xff, 0x1e, 0xdd, 0x1f,
  0xca, 0xf1, 0x23, 0xe2, 0xd3, 0x1a, 0xe5, 0x21, 0xc9, 0xed, 0x25, 0xdf,
  0xff, 0x0d, 0xf9, 0x04, 0xc4, 0x0e, 0xe0, 0xf2, 0x01, 0x07, 0x06, 0x0c,
  0x0c, 0x0e, 0xf6, 0xf3, 0xf2, 0x05, 0xdc, 0x13, 0xf3, 0xfc, 0x01, 0xf9,
  0x12, 0x07, 0x0c, 0x06, 0xdd, 0xf5, 0x07, 0x0a, 0x01, 0x1a, 0xf5, 0xe9,
  0xef, 0xff, 0x0d, 0xe9, 0x0d, 0xfb, 0x0a, 0x09, 0xd0, 0x0f, 0xe5, 0xf8,
  0xd2, 0xff, 0x0e, 0xfb, 0x02, 0xf0, 0x06, 0xdc, 0xfa, 0xee, 0xe5, 0xff,
  0xf4, 0x00, 0x03, 0xdb, 0xff, 0xd9, 0x0b, 0xfa, 0x05, 0xfc, 0xf2, 0xe4,
  0xff, 0x12, 0x07, 0xf9, 0xea, 0xff, 0xe1, 0x19, 0x25, 0x14, 0x20, 0x19,
  0x04, 0xed, 0x10, 0xfa, 0x1c, 0x04, 0x06, 0xe7, 0x2f, 0x20, 0x22, 0x0d,
  0xf1, 0x28, 0x0a, 0x11, 0x24, 0x22, 0x22, 0x1a, 0xf0, 0x48, 0xdc, 0xea,
  0x2f, 0x21, 0x0b, 0x41, 0x07, 0x2d, 0xff, 0xfd, 0x26, 0x1f, 0xff, 0x20,
  0x32, 0x06, 0x3a, 0x0b, 0xf8, 0xf7, 0xfa, 0x03, 0x28, 0x2f, 0x2e, 0x11,
  0xe2, 0xc9, 0x19, 0xba, 0x1c, 0x25, 0x06, 0x08, 0xf1, 0xf1, 0xef, 0xd3,
  0x11, 0x15, 0xfd, 0x1e, 0xd8, 0xd8, 0x1a, 0xf2, 0x03, 0x0f, 0xf2, 0x31,
  0xc8, 0xff, 0x22, 0xe8, 0xf4, 0x1b, 0x0c, 0x0a, 0xc5, 0xff, 0x05, 0xf4,
  0xf2, 0x01, 0x01, 0xf9, 0xf3, 0xfe, 0xe3, 0xfa, 0xf4, 0x09, 0xfe, 0xfe,
  0xed, 0xf4, 0xf9, 0xf0, 0x28, 0x0e, 0x1e, 0xf5, 0xe9, 0xf2, 0xe6, 0xff,
  0x0f, 0x10, 0x0e, 0x01, 0xf1, 0x00, 0xe5, 0xfa, 0x0d, 0x02, 0x13, 0x0e,
  0xec, 0xea, 0xe1, 0xfd, 0xe0, 0xfe, 0xef, 0xf5, 0x10, 0xf1, 0x28, 0xe4,
  0x14, 0xdf, 0x02, 0xf4, 0xff, 0xfe, 0xd3, 0xd8, 0xf7, 0xd5, 0x08, 0xdf,
  0xfa, 0x09, 0xf1, 0xec, 0x1b, 0x0f, 0x1d, 0xee, 0x00, 0x0a, 0xff, 0xfc,
  0x19, 0x10, 0x52, 0xff, 0x05, 0xfd, 0xff, 0x09, 0x04, 0x24, 0x27, 0xf2,
  0x1d, 0x39, 0x01, 0x0a, 0x1b, 0x27, 0x09, 0xef, 0x13, 0x01, 0x2b, 0x25,
  0xe7, 0x48, 0xe8, 0x0c, 0x12, 0xf9, 0xf9, 0x18, 0xeb, 0x21, 0xfa, 0xef,
  0xe3, 0x0f, 0xf6, 0x1f, 0x44, 0x0d, 0x22, 0x0f, 0xf3, 0xfc, 0x07, 0xf9,
  0x24, 0x2e, 0x0a, 0x09, 0xe7, 0xda, 0x10, 0xe1, 0x0a, 0x26, 0x06, 0x1d,
  0xc0, 0xfe, 0x28, 0xf9, 0xe4, 0x0a, 0x0d, 0x1a, 0xee, 0xe9, 0x06, 0xe5,
  0xf6, 0x10, 0xfe, 0x25, 0xde, 0x02, 0x2d, 0xed, 0xf1, 0x22, 0xe8, 0xfc,
  0xc9, 0x07, 0x07, 0xfe, 0x0a, 0x01, 0xfd, 0xf1, 0xf3, 0x06, 0x03, 0xf3,
  0xf5, 0x1d, 0x0e, 0xf4, 0xd8, 0xe8, 0x06, 0x00, 0x0c, 0x16, 0x0e, 0x07,
  0xbe, 0xfe, 0x1d, 0xff, 0xfd, 0x14, 0xfe, 0xff, 0xe5, 0xff, 0xe4, 0xdc,
  0xe9, 0x0a, 0x08, 0xeb, 0xf7, 0xf7, 0xf2, 0xf0, 0xf6, 0xcf, 0x07, 0x05,
  0xd9, 0xf8, 0x0b, 0xef, 0xeb, 0xdc, 0x0c, 0x0c, 0xf4, 0x04, 0xfa, 0xeb,
  0x19, 0xf2, 0x02, 0xe8, 0xf1, 0x06, 0x08, 0xfc, 0x15, 0xfe, 0x17, 0x03,
  0x08, 0x22, 0x15, 0x02, 0x13, 0x3f, 0x3a, 0x09, 0x01, 0xee, 0x21, 0xff,
  0x34, 0x42, 0x11, 0xe6, 0x0e, 0x1f, 0xe1, 0xfa, 0x2b, 0x23, 0x15, 0xf1,
  0x10, 0x00, 0x1c, 0x23, 0x0b, 0x39, 0xed, 0xdb, 0x10, 0xe4, 0x01, 0x02,
  0xfa, 0x0b, 0x14, 0xe9, 0xec, 0x14, 0x12, 0x0c, 0x08, 0x11, 0x30, 0x31,
  0xfb, 0xf6, 0x03, 0xfd, 0x30, 0x15, 0xef, 0x02, 0xf2, 0xdd, 0x21, 0xe6,
  0xef, 0x22, 0xfc, 0x0d, 0xdd, 0x07, 0xfa, 0xfa, 0x0b, 0x0f, 0xfd, 0x13,
  0xf7, 0xf2, 0xfb, 0xfe, 0xec, 0x1e, 0xfc, 0x15, 0xcd, 0xff, 0xda, 0xf6,
  0x01, 0x1a, 0xf2, 0xfe, 0xde, 0x18, 0x23, 0x02, 0xd5, 0x20, 0x15, 0xf5,
  0xf5, 0x04, 0xf5, 0xf4, 0xff, 0x02, 0xdc, 0xe6, 0xed, 0xfa, 0xf5, 0xf2,
  0xfb, 0x11, 0x23, 0xed, 0xbf, 0xf7, 0x1f, 0xdd, 0x0e, 0x08, 0x1c, 0xf8,
  0xda, 0x02, 0xdf, 0xf9, 0xf5, 0xcd, 0xeb, 0xf8, 0xd7, 0x0d, 0x1a, 0xf7,
  0x00, 0xe9, 0xfb, 0xf0, 0xe0, 0xe6, 0xf3, 0xf2, 0xe2, 0xcc, 0xfd, 0x03,
  0xff, 0xf1, 0x00, 0xee, 0xfa, 0xe2, 0xee, 0x25, 0xf3, 0xfa, 0x25, 0xf6,
  0x19, 0x17, 0x01, 0x06, 0x0c, 0xf7, 0x0b, 0x20, 0x17, 0x2b, 0x31, 0xfa,
  0xf6, 0x0b, 0xf0, 0x19, 0x15, 0x39, 0x09, 0x0c, 0xe4, 0x3e, 0x28, 0x07,
  0x06, 0x3c, 0x30, 0xe8, 0xf6, 0xfc, 0xfb, 0x0f, 0xfd, 0x40, 0x19, 0xeb,
  0x09, 0xcf, 0x1a, 0x04, 0xed, 0x1a, 0x16, 0x03, 0x10, 0xf1, 0xe2, 0xf6,
  0x04, 0x19, 0x0f, 0x04, 0x07, 0xf2, 0xf8, 0xfa, 0xf5, 0x34, 0xec, 0x09,
  0xe6, 0xda, 0x1c, 0xfb, 0x08, 0x1d, 0xfa, 0xea, 0xda, 0xd9, 0x11, 0x0a,
  0x08, 0xfa, 0xe7, 0xf2, 0xf5, 0xee, 0x0c, 0xfc, 0x08, 0xed, 0xfd, 0xf9,
  0xf1, 0xef, 0x00, 0xf8, 0xf0, 0x12, 0x11, 0xe9, 0xf4, 0x0d, 0x05, 0x14,
  0xfe, 0x17, 0xff, 0xf9, 0xfb, 0x00, 0xfc, 0x1d, 0x11, 0x0e, 0xf5, 0xe5,
  0x04, 0xee, 0x0c, 0xf5, 0x0b, 0x14, 0xff, 0xee, 0xf9, 0xf4, 0x07, 0xec,
  0xfa, 0x0a, 0xed, 0x06, 0xc7, 0x02, 0x23, 0x07, 0xe0, 0xe7, 0x02, 0x08,
  0xda, 0xe1, 0x0f, 0xf6, 0xf7, 0xdf, 0xe9, 0xed, 0xf0, 0xe0, 0x26, 0xf7,
  0x02, 0xdc, 0xf3, 0xe3, 0x10, 0xfa, 0x1a, 0xff, 0x16, 0xe5, 0xeb, 0x20,
  0xef, 0xf7, 0x04, 0xe7, 0x2e, 0xff, 0xff, 0xff, 0x04, 0x00, 0x00, 0x00,
  0x0c, 0x00, 0x00, 0x00, 0x32, 0x03, 0x00, 0x00, 0x78, 0xfe, 0xff, 0xff,
  0x56, 0xfe, 0xff, 0xff, 0x46, 0xff, 0xff, 0xff, 0x04, 0x00, 0x00, 0x00,
  0x08, 0x00, 0x00, 0x00, 0xff, 0xff, 0xff, 0xff, 0xa0, 0x0f, 0x00, 0x00,
  0x5a, 0xff, 0xff, 0xff, 0x04, 0x00, 0x00, 0x00, 0x10, 0x00, 0x00, 0x00,
  0xff, 0xff, 0xff, 0xff, 0x31, 0x00, 0x00, 0x00, 0x28, 0x00, 0x00, 0x00,
  0x01, 0x00, 0x00, 0x00, 0xf0, 0xf9, 0xff, 0xff, 0xf4, 0xf9, 0xff, 0xff,
  0x0f, 0x00, 0x00, 0x00, 0x4d, 0x4c, 0x49, 0x52, 0x20, 0x43, 0x6f, 0x6e,
  0x76, 0x65, 0x72, 0x74, 0x65, 0x64, 0x2e, 0x00, 0x01, 0x00, 0x00, 0x00,
  0x14, 0x00, 0x00, 0x00, 0x00, 0x00, 0x0e, 0x00, 0x18, 0x00, 0x14, 0x00,
  0x10, 0x00, 0x0c, 0x00, 0x08, 0x00, 0x04, 0x00, 0x0e, 0x00, 0x00, 0x00,
  0x14, 0x00, 0x00, 0x00, 0x1c, 0x00, 0x00, 0x00, 0x44, 0x01, 0x00, 0x00,
  0x48, 0x01, 0x00, 0x00, 0x4c, 0x01, 0x00, 0x00, 0x04, 0x00, 0x00, 0x00,
  0x6d, 0x61, 0x69, 0x6e, 0x00, 0x00, 0x00, 0x00, 0x05, 0x00, 0x00, 0x00,
  0x08, 0x01, 0x00, 0x00, 0xac, 0x00, 0x00, 0x00, 0x78, 0x00, 0x00, 0x00,
  0x40, 0x00, 0x00, 0x00, 0x04, 0x00, 0x00, 0x00, 0x72, 0xff, 0xff, 0xff,
  0x1c, 0x00, 0x00, 0x00, 0x00, 0x00, 0x00, 0x09, 0x1c, 0x00, 0x00, 0x00,
  0x20, 0x00, 0x00, 0x00, 0x03, 0x00, 0x00, 0x00, 0x00, 0x00, 0x06, 0x00,
  0x08, 0x00, 0x04, 0x00, 0x06, 0x00, 0x00, 0x00, 0x00, 0x00, 0x80, 0x3f,
  0x01, 0x00, 0x00, 0x00, 0x0b, 0x00, 0x00, 0x00, 0x01, 0x00, 0x00, 0x00,
  0x0a, 0x00, 0x00, 0x00, 0xaa, 0xff, 0xff, 0xff, 0x14, 0x00, 0x00, 0x00,
  0x00, 0x00, 0x00, 0x08, 0x10, 0x00, 0x00, 0x00, 0x14, 0x00, 0x00, 0x00,
  0x02, 0x00, 0x00, 0x00, 0xb0, 0xfa, 0xff, 0xff, 0x01, 0x00, 0x00, 0x00,
  0x0a, 0x00, 0x00, 0x00, 0x03, 0x00, 0x00, 0x00, 0x09, 0x00, 0x00, 0x00,
  0x04, 0x00, 0x00, 0x00, 0x03, 0x00, 0x00, 0x00, 0x82, 0xff, 0xff, 0xff,
  0x08, 0x00, 0x00, 0x00, 0x0c, 0x00, 0x00, 0x00, 0x01, 0x00, 0x00, 0x00,
  0x09, 0x00, 0x00, 0x00, 0x02, 0x00, 0x00, 0x00, 0x08, 0x00, 0x00, 0x00,
  0x02, 0x00, 0x00, 0x00, 0x00, 0x00, 0x0e, 0x00, 0x18, 0x00, 0x14, 0x00,
  0x10, 0x00, 0x0c, 0x00, 0x0b, 0x00, 0x04, 0x00, 0x0e, 0x00, 0x00, 0x00,
  0x20, 0x00, 0x00, 0x00, 0x00, 0x00, 0x00, 0x01, 0x28, 0x00, 0x00, 0x00,
  0x2c, 0x00, 0x00, 0x00, 0x01, 0x00, 0x00, 0x00, 0x0c, 0x00, 0x10, 0x00,
  0x00, 0x00, 0x0c, 0x00, 0x08, 0x00, 0x07, 0x00, 0x0c, 0x00, 0x00, 0x00,
  0x00, 0x00, 0x00, 0x01, 0x02, 0x00, 0x00, 0x00, 0x02, 0x00, 0x00, 0x00,
  0x01, 0x00, 0x00, 0x00, 0x08, 0x00, 0x00, 0x00, 0x03, 0x00, 0x00, 0x00,
  0x07, 0x00, 0x00, 0x00, 0x06, 0x00, 0x00, 0x00, 0x05, 0x00, 0x00, 0x00,
  0x00, 0x00, 0x0a, 0x00, 0x0c, 0x00, 0x00, 0x00, 0x08, 0x00, 0x04, 0x00,
  0x0a, 0x00, 0x00, 0x00, 0x08, 0x00, 0x00, 0x00, 0x0c, 0x00, 0x00, 0x00,
  0x01, 0x00, 0x00, 0x00, 0x07, 0x00, 0x00, 0x00, 0x02, 0x00, 0x00, 0x00,
  0x00, 0x00, 0x00, 0x00, 0x01, 0x00, 0x00, 0x00, 0x01, 0x00, 0x00, 0x00,
  0x0b, 0x00, 0x00, 0x00, 0x01, 0x00, 0x00, 0x00, 0x00, 0x00, 0x00, 0x00,
  0x0c, 0x00, 0x00, 0x00, 0xb4, 0x04, 0x00, 0x00, 0x58, 0x04, 0x00, 0x00,
  0x18, 0x04, 0x00, 0x00, 0xbc, 0x03, 0x00, 0x00, 0x60, 0x03, 0x00, 0x00,
  0xb4, 0x02, 0x00, 0x00, 0x00, 0x02, 0x00, 0x00, 0x9c, 0x01, 0x00, 0x00,
  0x28, 0x01, 0x00, 0x00, 0xcc, 0x00, 0x00, 0x00, 0x68, 0x00, 0x00, 0x00,
  0x04, 0x00, 0x00, 0x00, 0x92, 0xfb, 0xff, 0xff, 0x00, 0x00, 0x00, 0x01,
  0x14, 0x00, 0x00, 0x00, 0x34, 0x00, 0x00, 0x00, 0x0c, 0x00, 0x00, 0x00,
  0x00, 0x00, 0x00, 0x09, 0x3c, 0x00, 0x00, 0x00, 0x7c, 0xfb, 0xff, 0xff,
  0x08, 0x00, 0x00, 0x00, 0x14, 0x00, 0x00, 0x00, 0x01, 0x00, 0x00, 0x00,
  0x80, 0xff, 0xff, 0xff, 0xff, 0xff, 0xff, 0xff, 0x00, 0x00, 0x00, 0x00,
  0x01, 0x00, 0x00, 0x00, 0x00, 0x00, 0x80, 0x3b, 0x0e, 0x00, 0x00, 0x00,
  0x6c, 0x61, 0x62, 0x65, 0x6c, 0x73, 0x5f, 0x73, 0x6f, 0x66, 0x74, 0x6d,
  0x61, 0x78, 0x00, 0x00, 0x02, 0x00, 0x00, 0x00, 0x01, 0x00, 0x00, 0x00,
  0x03, 0x00, 0x00, 0x00, 0xf2, 0xfb, 0xff, 0xff, 0x00, 0x00, 0x00, 0x01,
  0x14, 0x00, 0x00, 0x00, 0x34, 0x00, 0x00, 0x00, 0x0b, 0x00, 0x00, 0x00,
  0x00, 0x00, 0x00, 0x09, 0x3c, 0x00, 0x00, 0x00, 0xdc, 0xfb, 0xff, 0xff,
  0x08, 0x00, 0x00, 0x00, 0x14, 0x00, 0x00, 0x00, 0x01, 0x00, 0x00, 0x00,
  0xfc, 0xff, 0xff, 0xff, 0xff, 0xff, 0xff, 0xff, 0x00, 0x00, 0x00, 0x00,
  0x01, 0x00, 0x00, 0x00, 0x50, 0xa4, 0xa7, 0x3d, 0x0c, 0x00, 0x00, 0x00,
  0x4d, 0x61, 0x74, 0x4d, 0x75, 0x6c, 0x3b, 0x61, 0x64, 0x64, 0x5f, 0x31,
  0x00, 0x00, 0x00, 0x00, 0x02, 0x00, 0x00, 0x00, 0x01, 0x00, 0x00, 0x00,
  0x03, 0x00, 0x00, 0x00, 0x52, 0xfc, 0xff, 0xff, 0x00, 0x00, 0x00, 0x01,
  0x14, 0x00, 0x00, 0x00, 0x30, 0x00, 0x00, 0x00, 0x0a, 0x00, 0x00, 0x00,
  0x00, 0x00, 0x00, 0x09, 0x34, 0x00, 0x00, 0x00, 0x3c, 0xfc, 0xff, 0xff,
  0x08, 0x00, 0x00, 0x00, 0x10, 0x00, 0x00, 0x00, 0x01, 0x00, 0x00, 0x00,
  0x80, 0xff, 0xff, 0xff, 0xff, 0xff, 0xff, 0xff, 0x01, 0x00, 0x00, 0x00,
  0xcb, 0x3b, 0x98, 0x3d, 0x09, 0x00, 0x00, 0x00, 0x52, 0x65, 0x73, 0x68,
  0x61, 0x70, 0x65, 0x5f, 0x33, 0x00, 0x00, 0x00, 0x02, 0x00, 0x00, 0x00,
  0x01, 0x00, 0x00, 0x00, 0xa0, 0x0f, 0x00, 0x00, 0xaa, 0xfc, 0xff, 0xff,
  0x00, 0x00, 0x00, 0x01, 0x14, 0x00, 0x00, 0x00, 0x30, 0x00, 0x00, 0x00,
  0x09, 0x00, 0x00, 0x00, 0x00, 0x00, 0x00, 0x09, 0x44, 0x00, 0x00, 0x00,
  0x94, 0xfc, 0xff, 0xff, 0x08, 0x00, 0x00, 0x00, 0x10, 0x00, 0x00, 0x00,
  0x01, 0x00, 0x00, 0x00, 0x80, 0xff, 0xff, 0xff, 0xff, 0xff, 0xff, 0xff,
  0x01, 0x00, 0x00, 0x00, 0xcb, 0x3b, 0x98, 0x3d, 0x1a, 0x00, 0x00, 0x00,
  0x52, 0x65, 0x6c, 0x75, 0x3b, 0x61, 0x64, 0x64, 0x3b, 0x43, 0x6f, 0x6e,
  0x76, 0x32, 0x44, 0x3b, 0x66, 0x69, 0x72, 0x73, 0x74, 0x5f, 0x62, 0x69,
  0x61, 0x73, 0x00, 0x00, 0x04, 0x00, 0x00, 0x00, 0x01, 0x00, 0x00, 0x00,
  0x19, 0x00, 0x00, 0x00, 0x14, 0x00, 0x00, 0x00, 0x08, 0x00, 0x00, 0x00,
  0x1a, 0xfd, 0xff, 0xff, 0x00, 0x00, 0x00, 0x01, 0x14, 0x00, 0x00, 0x00,
  0x30, 0x00, 0x00, 0x00, 0x08, 0x00, 0x00, 0x00, 0x00, 0x00, 0x00, 0x09,
  0x34, 0x00, 0x00, 0x00, 0x04, 0xfd, 0xff, 0xff, 0x08, 0x00, 0x00, 0x00,
  0x10, 0x00, 0x00, 0x00, 0x01, 0x00, 0x00, 0x00, 0x80, 0xff, 0xff, 0xff,
  0xff, 0xff, 0xff, 0xff, 0x01, 0x00, 0x00, 0x00, 0x00, 0x00, 0xd0, 0x3d,
  0x09, 0x00, 0x00, 0x00, 0x52, 0x65, 0x73, 0x68, 0x61, 0x70, 0x65, 0x5f,
  0x32, 0x00, 0x00, 0x00, 0x04, 0x00, 0x00, 0x00, 0x01, 0x00, 0x00, 0x00,
  0x31, 0x00, 0x00, 0x00, 0x28, 0x00, 0x00, 0x00, 0x01, 0x00, 0x00, 0x00,
  0x7a, 0xfd, 0xff, 0xff, 0x00, 0x00, 0x00, 0x01, 0x14, 0x00, 0x00, 0x00,
  0x84, 0x00, 0x00, 0x00, 0x07, 0x00, 0x00, 0x00, 0x00, 0x00, 0x00, 0x09,
  0x84, 0x00, 0x00, 0x00, 0x64, 0xfd, 0xff, 0xff, 0x08, 0x00, 0x00, 0x00,
  0x48, 0x00, 0x00, 0x00, 0x08, 0x00, 0x00, 0x00, 0x00, 0x00, 0x00, 0x00,
  0x00, 0x00, 0x00, 0x00, 0x00, 0x00, 0x00, 0x00, 0x00, 0x00, 0x00, 0x00,
  0x00, 0x00, 0x00, 0x00, 0x00, 0x00, 0x00, 0x00, 0x00, 0x00, 0x00, 0x00,
  0x00, 0x00, 0x00, 0x00, 0x00, 0x00, 0x00, 0x00, 0x00, 0x00, 0x00, 0x00,
  0x00, 0x00, 0x00, 0x00, 0x00, 0x00, 0x00, 0x00, 0x00, 0x00, 0x00, 0x00,
  0x00, 0x00, 0x00, 0x00, 0x00, 0x00, 0x00, 0x00, 0x00, 0x00, 0x00, 0x00,
  0x08, 0x00, 0x00, 0x00, 0x1a, 0xe3, 0x30, 0x3a, 0xd1, 0xe1, 0x55, 0x3a,
  0x31, 0xdd, 0x1b, 0x3a, 0x50, 0xe6, 0x01, 0x3a, 0xbf, 0xee, 0x2d, 0x3a,
  0xaf, 0xa9, 0xa0, 0x3a, 0x42, 0xfb, 0x8b, 0x39, 0x6b, 0xf8, 0x42, 0x3a,
  0x06, 0x00, 0x00, 0x00, 0x43, 0x6f, 0x6e, 0x76, 0x32, 0x44, 0x00, 0x00,
  0x04, 0x00, 0x00, 0x00, 0x08, 0x00, 0x00, 0x00, 0x0a, 0x00, 0x00, 0x00,
  0x08, 0x00, 0x00, 0x00, 0x01, 0x00, 0x00, 0x00, 0x2a, 0xfe, 0xff, 0xff,
  0x00, 0x00, 0x00, 0x01, 0x14, 0x00, 0x00, 0x00, 0x84, 0x00, 0x00, 0x00,
  0x06, 0x00, 0x00, 0x00, 0x00, 0x00, 0x00, 0x02, 0x88, 0x00, 0x00, 0x00,
  0x14, 0xfe, 0xff, 0xff, 0x08, 0x00, 0x00, 0x00, 0x48, 0x00, 0x00, 0x00,
  0x08, 0x00, 0x00, 0x00, 0x00, 0x00, 0x00, 0x00, 0x00, 0x00, 0x00, 0x00,
  0x00, 0x00, 0x00, 0x00, 0x00, 0x00, 0x00, 0x00, 0x00, 0x00, 0x00, 0x00,
  0x00, 0x00, 0x00, 0x00, 0x00, 0x00, 0x00, 0x00, 0x00, 0x00, 0x00, 0x00,
  0x00, 0x00, 0x00, 0x00, 0x00, 0x00, 0x00, 0x00, 0x00, 0x00, 0x00, 0x00,
  0x00, 0x00, 0x00, 0x00, 0x00, 0x00, 0x00, 0x00, 0x00, 0x00, 0x00, 0x00,
  0x00, 0x00, 0x00, 0x00, 0x00, 0x00, 0x00, 0x00, 0x08, 0x00, 0x00, 0x00,
  0x85, 0xb8, 0x8f, 0x38, 0x7a, 0xc7, 0xad, 0x38, 0x70, 0x47, 0x7d, 0x38,
  0x42, 0x16, 0x53, 0x38, 0xfb, 0x51, 0x8d, 0x38, 0xde, 0x89, 0x02, 0x39,
  0x4b, 0x78, 0xe3, 0x37, 0xd7, 0x69, 0x9e, 0x38, 0x0a, 0x00, 0x00, 0x00,
  0x66, 0x69, 0x72, 0x73, 0x74, 0x5f, 0x62, 0x69, 0x61, 0x73, 0x00, 0x00,
  0x01, 0x00, 0x00, 0x00, 0x08, 0x00, 0x00, 0x00, 0xd2, 0xfe, 0xff, 0xff,
  0x00, 0x00, 0x00, 0x01, 0x14, 0x00, 0x00, 0x00, 0x34, 0x00, 0x00, 0x00,
  0x05, 0x00, 0x00, 0x00, 0x00, 0x00, 0x00, 0x09, 0x34, 0x00, 0x00, 0x00,
  0xbc, 0xfe, 0xff, 0xff, 0x08, 0x00, 0x00, 0x00, 0x14, 0x00, 0x00, 0x00,
  0x01, 0x00, 0x00, 0x00, 0x00, 0x00, 0x00, 0x00, 0x00, 0x00, 0x00, 0x00,
  0x00, 0x00, 0x00, 0x00, 0x01, 0x00, 0x00, 0x00, 0x33, 0x3c, 0xe5, 0x39,
  0x06, 0x00, 0x00, 0x00, 0x4d, 0x61, 0x74, 0x4d, 0x75, 0x6c, 0x00, 0x00,
  0x02, 0x00, 0x00, 0x00, 0x03, 0x00, 0x00, 0x00, 0xa0, 0x0f, 0x00, 0x00,
  0x2a, 0xff, 0xff, 0xff, 0x00, 0x00, 0x00, 0x01, 0x14, 0x00, 0x00, 0x00,
  0x30, 0x00, 0x00, 0x00, 0x04, 0x00, 0x00, 0x00, 0x00, 0x00, 0x00, 0x02,
  0x38, 0x00, 0x00, 0x00, 0x14, 0xff, 0xff, 0xff, 0x08, 0x00, 0x00, 0x00,
  0x10, 0x00, 0x00, 0x00, 0x01, 0x00, 0x00, 0x00, 0x00, 0x00, 0x00, 0x00,
  0x00, 0x00, 0x00, 0x00, 0x01, 0x00, 0x00, 0x00, 0x49, 0x51, 0x08, 0x38,
  0x0d, 0x00, 0x00, 0x00, 0x66, 0x69, 0x6e, 0x61, 0x6c, 0x5f, 0x66, 0x63,
  0x5f, 0x62, 0x69, 0x61, 0x73, 0x00, 0x00, 0x00, 0x01, 0x00, 0x00, 0x00,
  0x03, 0x00, 0x00, 0x00, 0x82, 0xff, 0xff, 0xff, 0x00, 0x00, 0x00, 0x01,
  0x14, 0x00, 0x00, 0x00, 0x14, 0x00, 0x00, 0x00, 0x03, 0x00, 0x00, 0x00,
  0x00, 0x00, 0x00, 0x02, 0x1c, 0x00, 0x00, 0x00, 0xc4, 0xff, 0xff, 0xff,
  0x0f, 0x00, 0x00, 0x00, 0x52, 0x65, 0x73, 0x68, 0x61, 0x70, 0x65, 0x5f,
  0x33, 0x2f, 0x73, 0x68, 0x61, 0x70, 0x65, 0x00, 0x01, 0x00, 0x00, 0x00,
  0x02, 0x00, 0x00, 0x00, 0xbe, 0xff, 0xff, 0xff, 0x00, 0x00, 0x00, 0x01,
  0x18, 0x00, 0x00, 0x00, 0x18, 0x00, 0x00, 0x00, 0x02, 0x00, 0x00, 0x00,
  0x00, 0x00, 0x00, 0x02, 0x20, 0x00, 0x00, 0x00, 0x04, 0x00, 0x04, 0x00,
  0x04, 0x00, 0x00, 0x00, 0x0f, 0x00, 0x00, 0x00, 0x52, 0x65, 0x73, 0x68,
  0x61, 0x70, 0x65, 0x5f, 0x32, 0x2f, 0x73, 0x68, 0x61, 0x70, 0x65, 0x00,
  0x01, 0x00, 0x00, 0x00, 0x04, 0x00, 0x00, 0x00, 0x00, 0x00, 0x16, 0x00,
  0x1c, 0x00, 0x18, 0x00, 0x17, 0x00, 0x10, 0x00, 0x0c, 0x00, 0x08, 0x00,
  0x00, 0x00, 0x00, 0x00, 0x00, 0x00, 0x07, 0x00, 0x16, 0x00, 0x00, 0x00,
  0x00, 0x00, 0x00, 0x01, 0x20, 0x00, 0x00, 0x00, 0x40, 0x00, 0x00, 0x00,
  0x01, 0x00, 0x00, 0x00, 0x00, 0x00, 0x00, 0x09, 0x44, 0x00, 0x00, 0x00,
  0x0c, 0x00, 0x0c, 0x00, 0x00, 0x00, 0x00, 0x00, 0x08, 0x00, 0x04, 0x00,
  0x0c, 0x00, 0x00, 0x00, 0x08, 0x00, 0x00, 0x00, 0x14, 0x00, 0x00, 0x00,
  0x01, 0x00, 0x00, 0x00, 0x80, 0xff, 0xff, 0xff, 0xff, 0xff, 0xff, 0xff,
  0x00, 0x00, 0x00, 0x00, 0x01, 0x00, 0x00, 0x00, 0x00, 0x00, 0xd0, 0x3d,
  0x09, 0x00, 0x00, 0x00, 0x52, 0x65, 0x73, 0x68, 0x61, 0x70, 0x65, 0x5f,
  0x31, 0x00, 0x00, 0x00, 0x02, 0x00, 0x00, 0x00, 0x01, 0x00, 0x00, 0x00,
  0xa8, 0x07, 0x00, 0x00, 0x04, 0x00, 0x00, 0x00, 0x58, 0x00, 0x00, 0x00,
  0x38, 0x00, 0x00, 0x00, 0x18, 0x00, 0x00, 0x00, 0x04, 0x00, 0x00, 0x00,
  0xe0, 0xff, 0xff, 0xff, 0x19, 0x00, 0x00, 0x00, 0x02, 0x00, 0x00, 0x00,
  0x00, 0x00, 0x00, 0x19, 0xf0, 0xff, 0xff, 0xff, 0x09, 0x00, 0x00, 0x00,
  0x04, 0x00, 0x00, 0x00, 0x00, 0x00, 0x00, 0x09, 0x0c, 0x00, 0x10, 0x00,
  0x0f, 0x00, 0x00, 0x00, 0x08, 0x00, 0x04, 0x00, 0x0c, 0x00, 0x00, 0x00,
  0x03, 0x00, 0x00, 0x00, 0x03, 0x00, 0x00, 0x00, 0x00, 0x00, 0x00, 0x03,
  0x0c, 0x00, 0x0c, 0x00, 0x0b, 0x00, 0x00, 0x00, 0x00, 0x00, 0x04, 0x00,
  0x0c, 0x00, 0x00, 0x00, 0x16, 0x00, 0x00, 0x00, 0x00, 0x00, 0x00, 0x16
};
unsigned int g_model_len = 14952;
